{
  "version": "1.0",
  "truncation": null,
  "padding": null,
  "added_tokens": [
    {
      "id": 0,
      "content": "[UNK]",
      "single_word": false,
      "lstrip": false,
      "rstrip": false,
      "normalized": false,
      "special": true
    },
    {
      "id": 1,
      "content": "[PAD]",
      "single_word": false,
      "lstrip": false,
      "rstrip": false,
      "normalized": false,
      "special": true
    },
    {
      "id": 2,
      "content": "[BOS]",
      "single_word": false,
      "lstrip": false,
      "rstrip": false,
      "normalized": false,
      "special": true
    },
    {
      "id": 3,
      "content": "[EOS]",
      "single_word": false,
      "lstrip": false,
      "rstrip": false,
      "normalized": false,
      "special": true
    },
    {
      "id": 4,
      "content": "[CLS]",
      "single_word": false,
      "lstrip": false,
      "rstrip": false,
      "normalized": false,
      "special": true
    },
    {
      "id": 5,
      "content": "[SEP]",
      "single_word": false,
      "lstrip": false,
      "rstrip": false,
      "normalized": false,
      "special": true
    },
    {
      "id": 6,
      "content": "[MASK]",
      "single_word": false,
      "lstrip": false,
      "rstrip": false,
      "normalized": false,
      "special": true
    }
  ],
  "normalizer": null,
  "pre_tokenizer": {
    "type": "Whitespace"
  },
  "post_processor": null,
  "decoder": null,
  "model": {
    "type": "BPE",
    "dropout": null,
    "unk_token": "[UNK]",
    "continuing_subword_prefix": null,
    "end_of_word_suffix": null,
    "fuse_unk": false,
    "byte_fallback": false,
    "ignore_merges": false,
    "vocab": {
      "[UNK]": 0,
      "[PAD]": 1,
      "[BOS]": 2,
      "[EOS]": 3,
      "[CLS]": 4,
      "[SEP]": 5,
      "[MASK]": 6,
      "0": 7,
      "1": 8,
      "2": 9,
      "3": 10,
      "4": 11,
      "5": 12,
      "6": 13,
      "7": 14,
      "8": 15,
      "9": 16,
      "A": 17,
      "B": 18,
      "C": 19,
      "D": 20,
      "E": 21,
      "F": 22,
      "G": 23,
      "H": 24,
      "I": 25,
      "J": 26,
      "K": 27,
      "L": 28,
      "M": 29,
      "N": 30,
      "O": 31,
      "P": 32,
      "Q": 33,
      "R": 34,
      "S": 35,
      "T": 36,
      "U": 37,
      "V": 38,
      "W": 39,
      "X": 40,
      "Y": 41,
      "Z": 42,
      "a": 43,
      "b": 44,
      "c": 45,
      "d": 46,
      "e": 47,
      "f": 48,
      "g": 49,
      "h": 50,
      "i": 51,
      "j": 52,
      "k": 53,
      "l": 54,
      "m": 55,
      "n": 56,
      "o": 57,
      "p": 58,
      "q": 59,
      "r": 60,
      "s": 61,
      "t": 62,
      "u": 63,
      "v": 64,
      "w": 65,
      "x": 66,
      "y": 67,
      "z": 68,
      "he": 69,
      "in": 70,
      "the": 71,
      "an": 72,
      "re": 73,
      "ou": 74,
      "on": 75,
      "th": 76,
      "er": 77,
      "at": 78,
      "en": 79,
      "to": 80,
      "ed": 81,
      "is": 82,
      "and": 83,
      "as": 84,
      "of": 85,
      "or": 86,
      "ing": 87,
      "ar": 88,
      "ll": 89,
      "it": 90,
      "es": 91,
      "ha": 92,
      "se": 93,
      "me": 94,
      "le": 95,
      "be": 96,
      "no": 97,
      "st": 98,
      "hi": 99,
      "you": 100,
      "ve": 101,
      "wi": 102,
      "ch": 103,
      "ro": 104,
      "ent": 105,
      "ly": 106,
      "ce": 107,
      "that": 108,
      "ld": 109,
      "id": 110,
      "was": 111,
      "al": 112,
      "for": 113,
      "gh": 114,
      "ut": 115,
      "her": 116,
      "ver": 117,
      "ion": 118,
      "we": 119,
      "his": 120,
      "so": 121,
      "ad": 122,
      "li": 123,
      "ho": 124,
      "ay": 125,
      "with": 126,
      "ir": 127,
      "not": 128,
      "ri": 129,
      "all": 130,
      "su": 131,
      "had": 132,
      "con": 133,
      "my": 134,
      "ght": 135,
      "de": 136,
      "ould": 137,
      "lo": 138,
      "co": 139,
      "sa": 140,
      "ct": 141,
      "un": 142,
      "mo": 143,
      "ter": 144,
      "ther": 145,
      "fe": 146,
      "she": 147,
      "him": 148,
      "ne": 149,
      "do": 150,
      "ke": 151,
      "ag": 152,
      "ain": 153,
      "The": 154,
      "ab": 155,
      "ur": 156,
      "pe": 157,
      "whi": 158,
      "have": 159,
      "one": 160,
      "are": 161,
      "po": 162,
      "ti": 163,
      "am": 164,
      "ess": 165,
      "but": 166,
      "ac": 167,
      "out": 168,
      "od": 169,
      "our": 170,
      "man": 171,
      "which": 172,
      "us": 173,
      "hat": 174,
      "by": 175,
      "red": 176,
      "res": 177,
      "et": 178,
      "te": 179,
      "now": 180,
      "rom": 181,
      "oun": 182,
      "up": 183,
      "said": 184,
      "qu": 185,
      "who": 186,
      "ard": 187,
      "go": 188,
      "whe": 189,
      "ex": 190,
      "from": 191,
      "if": 192,
      "this": 193,
      "mp": 194,
      "OS": 195,
      "ow": 196,
      "sel": 197,
      "ra": 198,
      "very": 199,
      "ic": 200,
      "per": 201,
      "thing": 202,
      "end": 203,
      "ul": 204,
      "ant": 205,
      "ation": 206,
      "il": 207,
      "ous": 208,
      "ment": 209,
      "ust": 210,
      "will": 211,
      "ind": 212,
      "they": 213,
      "fo": 214,
      "were": 215,
      "self": 216,
      "your": 217,
      "would": 218,
      "est": 219,
      "ok": 220,
      "cont": 221,
      "ap": 222,
      "ight": 223,
      "He": 224,
      "them": 225,
      "see": 226,
      "some": 227,
      "art": 228,
      "fa": 229,
      "ast": 230,
      "ate": 231,
      "what": 232,
      "sh": 233,
      "Mr": 234,
      "ill": 235,
      "ong": 236,
      "wor": 237,
      "dis": 238,
      "been": 239,
      "ge": 240,
      "ak": 241,
      "any": 242,
      "way": 243,
      "ough": 244,
      "pl": 245,
      "pro": 246,
      "there": 247,
      "af": 248,
      "tr": 249,
      "au": 250,
      "could": 251,
      "know": 252,
      "si": 253,
      "ound": 254,
      "when": 255,
      "der": 256,
      "other": 257,
      "ven": 258,
      "able": 259,
      "wo": 260,
      "more": 261,
      "An": 262,
      "their": 263,
      "ity": 264,
      "ance": 265,
      "ved": 266,
      "pp": 267,
      "med": 268,
      "ame": 269,
      "content": 270,
      "ure": 271,
      "ake": 272,
      "itt": 273,
      "can": 274,
      "fore": 275,
      "It": 276,
      "com": 277,
      "ck": 278,
      "wn": 279,
      "than": 280,
      "ive": 281,
      "But": 282,
      "bo": 283,
      "ought": 284,
      "BOS": 285,
      "EOS": 286,
      "ence": 287,
      "ine": 288,
      "reat": 289,
      "sp": 290,
      "op": 291,
      "then": 292,
      "urn": 293,
      "ret": 294,
      "hed": 295,
      "el": 296,
      "look": 297,
      "ink": 298,
      "pos": 299,
      "sha": 300,
      "ite": 301,
      "ass": 302,
      "did": 303,
      "should": 304,
      "has": 305,
      "like": 306,
      "into": 307,
      "ers": 308,
      "ide": 309,
      "only": 310,
      "mu": 311,
      "ble": 312,
      "say": 313,
      "ist": 314,
      "And": 315,
      "im": 316,
      "ort": 317,
      "ry": 318,
      "day": 319,
      "time": 320,
      "ish": 321,
      "upon": 322,
      "age": 323,
      "such": 324,
      "ep": 325,
      "ade": 326,
      "She": 327,
      "om": 328,
      "again": 329,
      "its": 330,
      "must": 331,
      "cl": 332,
      "ress": 333,
      "mb": 334,
      "ving": 335,
      "ally": 336,
      "over": 337,
      "vi": 338,
      "ang": 339,
      "ci": 340,
      "ction": 341,
      "ren": 342,
      "hand": 343,
      "ol": 344,
      "You": 345,
      "much": 346,
      "how": 347,
      "most": 348,
      "str": 349,
      "pr": 350,
      "about": 351,
      "come": 352,
      "read": 353,
      "ert": 354,
      "ob": 355,
      "di": 356,
      "ack": 357,
      "ness": 358,
      "well": 359,
      "long": 360,
      "let": 361,
      "think": 362,
      "ittle": 363,
      "ward": 364,
      "ars": 365,
      "little": 366,
      "int": 367,
      "good": 368,
      "before": 369,
      "every": 370,
      "never": 371,
      "ful": 372,
      "ans": 373,
      "comp": 374,
      "fi": 375,
      "rep": 376,
      "after": 377,
      "own": 378,
      "spe": 379,
      "ount": 380,
      "des": 381,
      "anc": 382,
      "great": 383,
      "ked": 384,
      "less": 385,
      "fri": 386,
      "ey": 387,
      "shall": 388,
      "ue": 389,
      "led": 390,
      "ise": 391,
      "made": 392,
      "may": 393,
      "fir": 394,
      "ple": 395,
      "ree": 396,
      "ont": 397,
      "mar": 398,
      "men": 399,
      "br": 400,
      "ser": 401,
      "ried": 402,
      "light": 403,
      "sto": 404,
      "gr": 405,
      "ily": 406,
      "where": 407,
      "under": 408,
      "gn": 409,
      "might": 410,
      "ves": 411,
      "We": 412,
      "off": 413,
      "fort": 414,
      "even": 415,
      "came": 416,
      "att": 417,
      "ave": 418,
      "ever": 419,
      "here": 420,
      "thought": 421,
      "tho": 422,
      "ach": 423,
      "ary": 424,
      "Mrs": 425,
      "ated": 426,
      "hou": 427,
      "down": 428,
      "iss": 429,
      "ng": 430,
      "No": 431,
      "ull": 432,
      "pt": 433,
      "new": 434,
      "too": 435,
      "lt": 436,
      "friend": 437,
      "sc": 438,
      "ace": 439,
      "two": 440,
      "ning": 441,
      "part": 442,
      "ef": 443,
      "happ": 444,
      "pre": 445,
      "bet": 446,
      "without": 447,
      "mon": 448,
      "In": 449,
      "um": 450,
      "himself": 451,
      "first": 452,
      "ty": 453,
      "ice": 454,
      "hy": 455,
      "though": 456,
      "row": 457,
      "arm": 458,
      "being": 459,
      "went": 460,
      "word": 461,
      "son": 462,
      "je": 463,
      "pleas": 464,
      "ord": 465,
      "bl": 466,
      "cted": 467,
      "ies": 468,
      "room": 469,
      "ened": 470,
      "tell": 471,
      "ious": 472,
      "make": 473,
      "ps": 474,
      "just": 475,
      "night": 476,
      "imp": 477,
      "What": 478,
      "ft": 479,
      "rest": 480,
      "get": 481,
      "ions": 482,
      "pass": 483,
      "house": 484,
      "mor": 485,
      "old": 486,
      "che": 487,
      "pres": 488,
      "nothing": 489,
      "ath": 490,
      "beg": 491,
      "chi": 492,
      "ud": 493,
      "cour": 494,
      "ared": 495,
      "heart": 496,
      "ear": 497,
      "vo": 498,
      "sm": 499,
      "low": 500,
      "these": 501,
      "air": 502,
      "llow": 503,
      "lad": 504,
      "clo": 505,
      "cons": 506,
      "back": 507,
      "turn": 508,
      "thr": 509,
      "feel": 510,
      "min": 511,
      "ings": 512,
      "mind": 513,
      "moment": 514,
      "head": 515,
      "away": 516,
      "appe": 517,
      "tor": 518,
      "still": 519,
      "young": 520,
      "cau": 521,
      "par": 522,
      "hen": 523,
      "lie": 524,
      "gi": 525,
      "last": 526,
      "act": 527,
      "jo": 528,
      "while": 529,
      "right": 530,
      "call": 531,
      "those": 532,
      "door": 533,
      "take": 534,
      "aw": 535,
      "ertain": 536,
      "tt": 537,
      "eyes": 538,
      "love": 539,
      "saw": 540,
      "ner": 541,
      "tic": 542,
      "yet": 543,
      "soon": 544,
      "gu": 545,
      "fl": 546,
      "cy": 547,
      "mer": 548,
      "cas": 549,
      "life": 550,
      "found": 551,
      "count": 552,
      "through": 553,
      "mes": 554,
      "king": 555,
      "full": 556,
      "ss": 557,
      "stand": 558,
      "want": 559,
      "bro": 560,
      "give": 561,
      "nt": 562,
      "ru": 563,
      "myself": 564,
      "ced": 565,
      "sure": 566,
      "ince": 567,
      "ways": 568,
      "du": 569,
      "They": 570,
      "heard": 571,
      "return": 572,
      "once": 573,
      "dear": 574,
      "herself": 575,
      "ire": 576,
      "Then": 577,
      "den": 578,
      "ick": 579,
      "mat": 580,
      "sur": 581,
      "aking": 582,
      "cause": 583,
      "car": 584,
      "There": 585,
      "wer": 586,
      "father": 587,
      "ev": 588,
      "hor": 589,
      "ted": 590,
      "looked": 591,
      "seemed": 592,
      "ject": 593,
      "reas": 594,
      "Mar": 595,
      "ished": 596,
      "place": 597,
      "ond": 598,
      "dist": 599,
      "shi": 600,
      "iness": 601,
      "same": 602,
      "sen": 603,
      "sat": 604,
      "took": 605,
      "Miss": 606,
      "This": 607,
      "ange": 608,
      "kind": 609,
      "Ar": 610,
      "ten": 611,
      "put": 612,
      "quite": 613,
      "cess": 614,
      "Yes": 615,
      "many": 616,
      "nat": 617,
      "ie": 618,
      "ye": 619,
      "cha": 620,
      "ister": 621,
      "Oh": 622,
      "wards": 623,
      "cle": 624,
      "find": 625,
      "sho": 626,
      "wr": 627,
      "certain": 628,
      "Jo": 629,
      "mber": 630,
      "always": 631,
      "sol": 632,
      "face": 633,
      "left": 634,
      "tal": 635,
      "land": 636,
      "mother": 637,
      "sub": 638,
      "add": 639,
      "side": 640,
      "ently": 641,
      "sible": 642,
      "gl": 643,
      "ot": 644,
      "vis": 645,
      "If": 646,
      "pa": 647,
      "wat": 648,
      "My": 649,
      "lied": 650,
      "deed": 651,
      "ma": 652,
      "fect": 653,
      "ody": 654,
      "another": 655,
      "point": 656,
      "So": 657,
      "use": 658,
      "ained": 659,
      "whom": 660,
      "That": 661,
      "ition": 662,
      "hear": 663,
      "ks": 664,
      "St": 665,
      "something": 666,
      "odd": 667,
      "pect": 668,
      "ged": 669,
      "ff": 670,
      "wever": 671,
      "pose": 672,
      "till": 673,
      "things": 674,
      "hal": 675,
      "felt": 676,
      "reg": 677,
      "ste": 678,
      "oc": 679,
      "When": 680,
      "belie": 681,
      "going": 682,
      "nor": 683,
      "world": 684,
      "ither": 685,
      "ready": 686,
      "eng": 687,
      "far": 688,
      "better": 689,
      "wa": 690,
      "As": 691,
      "done": 692,
      "bed": 693,
      "exp": 694,
      "dont": 695,
      "cei": 696,
      "sir": 697,
      "spo": 698,
      "comm": 699,
      "cri": 700,
      "sil": 701,
      "used": 702,
      "ations": 703,
      "ener": 704,
      "ign": 705,
      "ran": 706,
      "try": 707,
      "gent": 708,
      "asked": 709,
      "dif": 710,
      "bre": 711,
      "body": 712,
      "ian": 713,
      "conf": 714,
      "hour": 715,
      "ised": 716,
      "cried": 717,
      "val": 718,
      "ith": 719,
      "lic": 720,
      "present": 721,
      "eas": 722,
      "temp": 723,
      "For": 724,
      "rel": 725,
      "inter": 726,
      "seen": 727,
      "rem": 728,
      "having": 729,
      "care": 730,
      "vent": 731,
      "aint": 732,
      "az": 733,
      "enough": 734,
      "since": 735,
      "ween": 736,
      "oub": 737,
      "Be": 738,
      "sister": 739,
      "rew": 740,
      "got": 741,
      "ris": 742,
      "told": 743,
      "thy": 744,
      "ched": 745,
      "form": 746,
      "replied": 747,
      "cur": 748,
      "fam": 749,
      "Well": 750,
      "ask": 751,
      "follow": 752,
      "itu": 753,
      "letter": 754,
      "knew": 755,
      "hope": 756,
      "Em": 757,
      "ople": 758,
      "ited": 759,
      "wish": 760,
      "sup": 761,
      "cannot": 762,
      "however": 763,
      "ref": 764,
      "ting": 765,
      "vers": 766,
      "qui": 767,
      "child": 768,
      "ately": 769,
      "set": 770,
      "cho": 771,
      "lin": 772,
      "rather": 773,
      "quest": 774,
      "wal": 775,
      "against": 776,
      "reme": 777,
      "ann": 778,
      "both": 779,
      "ls": 780,
      "cap": 781,
      "contin": 782,
      "ended": 783,
      "person": 784,
      "mean": 785,
      "few": 786,
      "cor": 787,
      "aught": 788,
      "reason": 789,
      "les": 790,
      "aut": 791,
      "pri": 792,
      "feren": 793,
      "three": 794,
      "round": 795,
      "God": 796,
      "times": 797,
      "aken": 798,
      "people": 799,
      "ments": 800,
      "av": 801,
      "ark": 802,
      "cu": 803,
      "hon": 804,
      "because": 805,
      "sent": 806,
      "indeed": 807,
      "cept": 808,
      "ig": 809,
      "woman": 810,
      "possible": 811,
      "At": 812,
      "home": 813,
      "ts": 814,
      "gir": 815,
      "speak": 816,
      "name": 817,
      "ined": 818,
      "does": 819,
      "gave": 820,
      "ins": 821,
      "char": 822,
      "half": 823,
      "doub": 824,
      "ms": 825,
      "haps": 826,
      "open": 827,
      "course": 828,
      "Ro": 829,
      "pur": 830,
      "ery": 831,
      "ling": 832,
      "morning": 833,
      "Todd": 834,
      "ular": 835,
      "words": 836,
      "Ch": 837,
      "happy": 838,
      "hard": 839,
      "whole": 840,
      "pped": 841,
      "arri": 842,
      "each": 843,
      "hel": 844,
      "gentle": 845,
      "thou": 846,
      "almost": 847,
      "mis": 848,
      "anything": 849,
      "How": 850,
      "Th": 851,
      "gether": 852,
      "voice": 853,
      "ather": 854,
      "stood": 855,
      "fair": 856,
      "between": 857,
      "together": 858,
      "hands": 859,
      "turned": 860,
      "ceived": 861,
      "near": 862,
      "To": 863,
      "matter": 864,
      "reco": 865,
      "hes": 866,
      "hun": 867,
      "poor": 868,
      "fully": 869,
      "ressed": 870,
      "began": 871,
      "raw": 872,
      "gra": 873,
      "stru": 874,
      "His": 875,
      "gener": 876,
      "anger": 877,
      "work": 878,
      "continu": 879,
      "tra": 880,
      "fortun": 881,
      "also": 882,
      "Sir": 883,
      "iz": 884,
      "lay": 885,
      "believe": 886,
      "leave": 887,
      "joy": 888,
      "ants": 889,
      "ley": 890,
      "Do": 891,
      "ceed": 892,
      "ably": 893,
      "ene": 894,
      "hold": 895,
      "coun": 896,
      "towards": 897,
      "looking": 898,
      "Co": 899,
      "Lu": 900,
      "passed": 901,
      "whose": 902,
      "called": 903,
      "affe": 904,
      "ub": 905,
      "cer": 906,
      "acc": 907,
      "win": 908,
      "really": 909,
      "inte": 910,
      "Mon": 911,
      "mas": 912,
      "keep": 913,
      "ute": 914,
      "dden": 915,
      "ating": 916,
      "understand": 917,
      "lady": 918,
      "live": 919,
      "dow": 920,
      "All": 921,
      "years": 922,
      "ider": 923,
      "ship": 924,
      "bit": 925,
      "ered": 926,
      "xt": 927,
      "interest": 928,
      "Her": 929,
      "ons": 930,
      "iled": 931,
      "selves": 932,
      "ia": 933,
      "bus": 934,
      "won": 935,
      "dr": 936,
      "ane": 937,
      "case": 938,
      "ied": 939,
      "ER": 940,
      "sing": 941,
      "cond": 942,
      "days": 943,
      "order": 944,
      "oud": 945,
      "fear": 946,
      "Now": 947,
      "spir": 948,
      "gone": 949,
      "lle": 950,
      "death": 951,
      "ross": 952,
      "ove": 953,
      "Al": 954,
      "suff": 955,
      "ures": 956,
      "serv": 957,
      "brought": 958,
      "given": 959,
      "inst": 960,
      "On": 961,
      "tru": 962,
      "wood": 963,
      "sle": 964,
      "za": 965,
      "reet": 966,
      "alone": 967,
      "ancy": 968,
      "ances": 969,
      "band": 970,
      "brother": 971,
      "ew": 972,
      "often": 973,
      "cir": 974,
      "taken": 975,
      "least": 976,
      "family": 977,
      "appear": 978,
      "posed": 979,
      "among": 980,
      "Val": 981,
      "perhaps": 982,
      "ped": 983,
      "others": 984,
      "unt": 985,
      "swe": 986,
      "known": 987,
      "appeared": 988,
      "Joh": 989,
      "consider": 990,
      "sec": 991,
      "tered": 992,
      "fic": 993,
      "tain": 994,
      "tri": 995,
      "riage": 996,
      "need": 997,
      "cal": 998,
      "fin": 999,
      "bu": 1000,
      "coming": 1001,
      "arr": 1002,
      "oney": 1003,
      "ken": 1004,
      "Eli": 1005,
      "ati": 1006,
      "friends": 1007,
      "play": 1008,
      "II": 1009,
      "ile": 1010,
      "small": 1011,
      "doubt": 1012,
      "prom": 1013,
      "ached": 1014,
      "adm": 1015,
      "Eliza": 1016,
      "Ill": 1017,
      "pleasure": 1018,
      "eld": 1019,
      "ses": 1020,
      "lau": 1021,
      "bes": 1022,
      "sudden": 1023,
      "thus": 1024,
      "Why": 1025,
      "manner": 1026,
      "best": 1027,
      "ned": 1028,
      "show": 1029,
      "list": 1030,
      "ety": 1031,
      "Will": 1032,
      "dire": 1033,
      "why": 1034,
      "Emily": 1035,
      "emp": 1036,
      "fall": 1037,
      "beaut": 1038,
      "sou": 1039,
      "ces": 1040,
      "power": 1041,
      "sor": 1042,
      "already": 1043,
      "ors": 1044,
      "agn": 1045,
      "aid": 1046,
      "iting": 1047,
      "therefore": 1048,
      "window": 1049,
      "returned": 1050,
      "meet": 1051,
      "yourself": 1052,
      "ca": 1053,
      "sort": 1054,
      "beth": 1055,
      "Im": 1056,
      "aven": 1057,
      "satis": 1058,
      "sign": 1059,
      "pret": 1060,
      "ctions": 1061,
      "adv": 1062,
      "comfort": 1063,
      "Elizabeth": 1064,
      "lar": 1065,
      "subject": 1066,
      "sed": 1067,
      "imag": 1068,
      "help": 1069,
      "allow": 1070,
      "peri": 1071,
      "medi": 1072,
      "daught": 1073,
      "attent": 1074,
      "thee": 1075,
      "wered": 1076,
      "ady": 1077,
      "acqu": 1078,
      "ult": 1079,
      "ash": 1080,
      "ton": 1081,
      "step": 1082,
      "real": 1083,
      "necess": 1084,
      "next": 1085,
      "appro": 1086,
      "Elin": 1087,
      "dark": 1088,
      "either": 1089,
      "hu": 1090,
      "ber": 1091,
      "suc": 1092,
      "short": 1093,
      "gg": 1094,
      "pain": 1095,
      "hus": 1096,
      "high": 1097,
      "blo": 1098,
      "evening": 1099,
      "sun": 1100,
      "delight": 1101,
      "ility": 1102,
      "mist": 1103,
      "aced": 1104,
      "whether": 1105,
      "mur": 1106,
      "ney": 1107,
      "partic": 1108,
      "pi": 1109,
      "girl": 1110,
      "yes": 1111,
      "HA": 1112,
      "money": 1113,
      "ical": 1114,
      "ided": 1115,
      "mad": 1116,
      "que": 1117,
      "lat": 1118,
      "TER": 1119,
      "true": 1120,
      "gri": 1121,
      "sound": 1122,
      "else": 1123,
      "strong": 1124,
      "wonder": 1125,
      "ster": 1126,
      "fr": 1127,
      "wife": 1128,
      "respect": 1129,
      "ford": 1130,
      "Pr": 1131,
      "cla": 1132,
      "ele": 1133,
      "continued": 1134,
      "bey": 1135,
      "dead": 1136,
      "means": 1137,
      "cked": 1138,
      "dro": 1139,
      "Ed": 1140,
      "dered": 1141,
      "ream": 1142,
      "circ": 1143,
      "bar": 1144,
      "longer": 1145,
      "ident": 1146,
      "hind": 1147,
      "pport": 1148,
      "run": 1149,
      "With": 1150,
      "onel": 1151,
      "immedi": 1152,
      "answer": 1153,
      "four": 1154,
      "jud": 1155,
      "ering": 1156,
      "plain": 1157,
      "Elinor": 1158,
      "vered": 1159,
      "thos": 1160,
      "ket": 1161,
      "position": 1162,
      "aris": 1163,
      "uring": 1164,
      "account": 1165,
      "igh": 1166,
      "differen": 1167,
      "law": 1168,
      "ov": 1169,
      "Ah": 1170,
      "Go": 1171,
      "ens": 1172,
      "answered": 1173,
      "lear": 1174,
      "fast": 1175,
      "fact": 1176,
      "vice": 1177,
      "surpr": 1178,
      "idea": 1179,
      "Ben": 1180,
      "gate": 1181,
      "lord": 1182,
      "aring": 1183,
      "spoke": 1184,
      "themselves": 1185,
      "nature": 1186,
      "CHA": 1187,
      "Mor": 1188,
      "question": 1189,
      "anx": 1190,
      "til": 1191,
      "rup": 1192,
      "within": 1193,
      "arms": 1194,
      "stay": 1195,
      "mine": 1196,
      "dep": 1197,
      "held": 1198,
      "ail": 1199,
      "saying": 1200,
      "along": 1201,
      "Mad": 1202,
      "inv": 1203,
      "opin": 1204,
      "obser": 1205,
      "dec": 1206,
      "aged": 1207,
      "town": 1208,
      "agree": 1209,
      "circum": 1210,
      "hur": 1211,
      "rid": 1212,
      "husband": 1213,
      "ank": 1214,
      "fav": 1215,
      "app": 1216,
      "cut": 1217,
      "wh": 1218,
      "business": 1219,
      "regard": 1220,
      "tre": 1221,
      "added": 1222,
      "tion": 1223,
      "inc": 1224,
      "PTER": 1225,
      "CHAPTER": 1226,
      "mus": 1227,
      "state": 1228,
      "view": 1229,
      "resol": 1230,
      "suppose": 1231,
      "table": 1232,
      "sy": 1233,
      "Art": 1234,
      "col": 1235,
      "perfect": 1236,
      "Let": 1237,
      "road": 1238,
      "eye": 1239,
      "sk": 1240,
      "usu": 1241,
      "occas": 1242,
      "express": 1243,
      "draw": 1244,
      "itted": 1245,
      "object": 1246,
      "Marian": 1247,
      "obli": 1248,
      "thor": 1249,
      "country": 1250,
      "Lord": 1251,
      "ext": 1252,
      "exc": 1253,
      "sense": 1254,
      "Lady": 1255,
      "start": 1256,
      "strange": 1257,
      "note": 1258,
      "ring": 1259,
      "natur": 1260,
      "lost": 1261,
      "ah": 1262,
      "ni": 1263,
      "second": 1264,
      "deep": 1265,
      "Lucy": 1266,
      "ates": 1267,
      "sum": 1268,
      "everything": 1269,
      "convers": 1270,
      "itude": 1271,
      "until": 1272,
      "expect": 1273,
      "Ly": 1274,
      "entered": 1275,
      "opened": 1276,
      "bring": 1277,
      "sight": 1278,
      "stri": 1279,
      "particular": 1280,
      "circumst": 1281,
      "als": 1282,
      "fellow": 1283,
      "feeling": 1284,
      "glad": 1285,
      "affection": 1286,
      "Ho": 1287,
      "agnan": 1288,
      "net": 1289,
      "cr": 1290,
      "close": 1291,
      "equ": 1292,
      "talk": 1293,
      "King": 1294,
      "ceive": 1295,
      "certainly": 1296,
      "mid": 1297,
      "ides": 1298,
      "Is": 1299,
      "sleep": 1300,
      "concer": 1301,
      "water": 1302,
      "book": 1303,
      "behind": 1304,
      "charact": 1305,
      "thous": 1306,
      "shed": 1307,
      "ush": 1308,
      "quick": 1309,
      "cious": 1310,
      "received": 1311,
      "bow": 1312,
      "ingly": 1313,
      "dest": 1314,
      "happiness": 1315,
      "boy": 1316,
      "Artagnan": 1317,
      "making": 1318,
      "ek": 1319,
      "thousand": 1320,
      "pected": 1321,
      "simp": 1322,
      "wise": 1323,
      "akes": 1324,
      "os": 1325,
      "Col": 1326,
      "ground": 1327,
      "ison": 1328,
      "fer": 1329,
      "pen": 1330,
      "sett": 1331,
      "stair": 1332,
      "truth": 1333,
      "Jane": 1334,
      "rown": 1335,
      "prof": 1336,
      "cast": 1337,
      "remain": 1338,
      "flo": 1339,
      "seeing": 1340,
      "idence": 1341,
      "daughter": 1342,
      "cell": 1343,
      "utes": 1344,
      "met": 1345,
      "cold": 1346,
      "formed": 1347,
      "fire": 1348,
      "remember": 1349,
      "soul": 1350,
      "ents": 1351,
      "master": 1352,
      "fine": 1353,
      "bur": 1354,
      "change": 1355,
      "ici": 1356,
      "itting": 1357,
      "immediately": 1358,
      "fur": 1359,
      "ending": 1360,
      "plan": 1361,
      "mount": 1362,
      "xed": 1363,
      "ctor": 1364,
      "illed": 1365,
      "ities": 1366,
      "fell": 1367,
      "knowled": 1368,
      "bad": 1369,
      "honour": 1370,
      "Not": 1371,
      "Br": 1372,
      "quiet": 1373,
      "ths": 1374,
      "feelings": 1375,
      "opinion": 1376,
      "followed": 1377,
      "DArtagnan": 1378,
      "na": 1379,
      "sess": 1380,
      "compan": 1381,
      "cent": 1382,
      "pra": 1383,
      "repe": 1384,
      "lled": 1385,
      "wall": 1386,
      "five": 1387,
      "condu": 1388,
      "attention": 1389,
      "ror": 1390,
      "sl": 1391,
      "sib": 1392,
      "above": 1393,
      "antly": 1394,
      "secret": 1395,
      "occasion": 1396,
      "wel": 1397,
      "diffic": 1398,
      "seem": 1399,
      "possess": 1400,
      "disco": 1401,
      "prob": 1402,
      "white": 1403,
      "Af": 1404,
      "silence": 1405,
      "creat": 1406,
      "Marianne": 1407,
      "tu": 1408,
      "minutes": 1409,
      "John": 1410,
      "kept": 1411,
      "gentleman": 1412,
      "ching": 1413,
      "effect": 1414,
      "Fo": 1415,
      "ouble": 1416,
      "Re": 1417,
      "taking": 1418,
      "large": 1419,
      "spect": 1420,
      "Me": 1421,
      "expected": 1422,
      "ille": 1423,
      "lish": 1424,
      "past": 1425,
      "gre": 1426,
      "begin": 1427,
      "rose": 1428,
      "aces": 1429,
      "general": 1430,
      "ination": 1431,
      "proper": 1432,
      "Colonel": 1433,
      "black": 1434,
      "deter": 1435,
      "war": 1436,
      "danger": 1437,
      "bert": 1438,
      "smile": 1439,
      "cup": 1440,
      "character": 1441,
      "Eng": 1442,
      "dred": 1443,
      "fied": 1444,
      "fortune": 1445,
      "bor": 1446,
      "ones": 1447,
      "necessary": 1448,
      "drew": 1449,
      "mere": 1450,
      "Se": 1451,
      "dri": 1452,
      "ender": 1453,
      "itself": 1454,
      "ously": 1455,
      "After": 1456,
      "Thou": 1457,
      "loved": 1458,
      "suddenly": 1459,
      "Count": 1460,
      "din": 1461,
      "hundred": 1462,
      "exam": 1463,
      "XX": 1464,
      "lit": 1465,
      "become": 1466,
      "visit": 1467,
      "fre": 1468,
      "desp": 1469,
      "sweet": 1470,
      "except": 1471,
      "became": 1472,
      "mention": 1473,
      "neither": 1474,
      "decl": 1475,
      "late": 1476,
      "ase": 1477,
      "mil": 1478,
      "De": 1479,
      "earth": 1480,
      "Lo": 1481,
      "doing": 1482,
      "clear": 1483,
      "raid": 1484,
      "favour": 1485,
      "conversation": 1486,
      "says": 1487,
      "worth": 1488,
      "hours": 1489,
      "lly": 1490,
      "children": 1491,
      "Your": 1492,
      "hardly": 1493,
      "sea": 1494,
      "scar": 1495,
      "dle": 1496,
      "chief": 1497,
      "safe": 1498,
      "thir": 1499,
      "rank": 1500,
      "company": 1501,
      "field": 1502,
      "break": 1503,
      "Who": 1504,
      "prep": 1505,
      "stead": 1506,
      "entire": 1507,
      "dread": 1508,
      "anged": 1509,
      "soci": 1510,
      "rance": 1511,
      "Madame": 1512,
      "laugh": 1513,
      "street": 1514,
      "sult": 1515,
      "Its": 1516,
      "ying": 1517,
      "sever": 1518,
      "wished": 1519,
      "wild": 1520,
      "wind": 1521,
      "blood": 1522,
      "wanted": 1523,
      "lea": 1524,
      "walked": 1525,
      "One": 1526,
      "har": 1527,
      "tou": 1528,
      "Paris": 1529,
      "lu": 1530,
      "pie": 1531,
      "bear": 1532,
      "feet": 1533,
      "chair": 1534,
      "leng": 1535,
      "oured": 1536,
      "vir": 1537,
      "sometimes": 1538,
      "usual": 1539,
      "em": 1540,
      "othe": 1541,
      "sequ": 1542,
      "deal": 1543,
      "remar": 1544,
      "By": 1545,
      "different": 1546,
      "Dar": 1547,
      "afraid": 1548,
      "horse": 1549,
      "during": 1550,
      "ham": 1551,
      "common": 1552,
      "easy": 1553,
      "ze": 1554,
      "heaven": 1555,
      "comple": 1556,
      "cus": 1557,
      "tempt": 1558,
      "eur": 1559,
      "amp": 1560,
      "paper": 1561,
      "situ": 1562,
      "enjoy": 1563,
      "fered": 1564,
      "hair": 1565,
      "former": 1566,
      "human": 1567,
      "ames": 1568,
      "bour": 1569,
      "emb": 1570,
      "year": 1571,
      "urch": 1572,
      "party": 1573,
      "Come": 1574,
      "lips": 1575,
      "miss": 1576,
      "iful": 1577,
      "marry": 1578,
      "tears": 1579,
      "Per": 1580,
      "ired": 1581,
      "Here": 1582,
      "remained": 1583,
      "ured": 1584,
      "Darcy": 1585,
      "comes": 1586,
      "lice": 1587,
      "conv": 1588,
      "contr": 1589,
      "gy": 1590,
      "ias": 1591,
      "foot": 1592,
      "ony": 1593,
      "susp": 1594,
      "die": 1595,
      "affair": 1596,
      "proceed": 1597,
      "risto": 1598,
      "ial": 1599,
      "sof": 1600,
      "cant": 1601,
      "hale": 1602,
      "forward": 1603,
      "seems": 1604,
      "Lond": 1605,
      "ager": 1606,
      "ump": 1607,
      "port": 1608,
      "import": 1609,
      "free": 1610,
      "six": 1611,
      "married": 1612,
      "natural": 1613,
      "Dor": 1614,
      "imed": 1615,
      "wit": 1616,
      "determin": 1617,
      "itation": 1618,
      "pray": 1619,
      "dare": 1620,
      "bell": 1621,
      "grat": 1622,
      "London": 1623,
      "trust": 1624,
      "placed": 1625,
      "lead": 1626,
      "lot": 1627,
      "hall": 1628,
      "length": 1629,
      "Ri": 1630,
      "ier": 1631,
      "ution": 1632,
      "iling": 1633,
      "sive": 1634,
      "Bar": 1635,
      "ale": 1636,
      "reached": 1637,
      "refle": 1638,
      "ging": 1639,
      "pay": 1640,
      "cross": 1641,
      "Cather": 1642,
      "ches": 1643,
      "stro": 1644,
      "curi": 1645,
      "mans": 1646,
      "whis": 1647,
      "hast": 1648,
      "Of": 1649,
      "ago": 1650,
      "moved": 1651,
      "beyond": 1652,
      "Por": 1653,
      "pal": 1654,
      "tender": 1655,
      "dut": 1656,
      "hum": 1657,
      "assu": 1658,
      "conce": 1659,
      "00": 1660,
      "grave": 1661,
      "wont": 1662,
      "appoint": 1663,
      "incl": 1664,
      "wenty": 1665,
      "dress": 1666,
      "gs": 1667,
      "tern": 1668,
      "cry": 1669,
      "carriage": 1670,
      "appearance": 1671,
      "tone": 1672,
      "utter": 1673,
      "happened": 1674,
      "flu": 1675,
      "arent": 1676,
      "desire": 1677,
      "Some": 1678,
      "terri": 1679,
      "ains": 1680,
      "produ": 1681,
      "pas": 1682,
      "van": 1683,
      "knowledge": 1684,
      "ende": 1685,
      "chance": 1686,
      "marriage": 1687,
      "pretty": 1688,
      "sieur": 1689,
      "anny": 1690,
      "claimed": 1691,
      "vil": 1692,
      "around": 1693,
      "cely": 1694,
      "agreeable": 1695,
      "stra": 1696,
      "liar": 1697,
      "quired": 1698,
      "ph": 1699,
      "lan": 1700,
      "Monte": 1701,
      "guard": 1702,
      "Fanny": 1703,
      "vol": 1704,
      "angu": 1705,
      "tried": 1706,
      "Ville": 1707,
      "struck": 1708,
      "spirits": 1709,
      "move": 1710,
      "pleased": 1711,
      "listen": 1712,
      "anxious": 1713,
      "ose": 1714,
      "wis": 1715,
      "impossible": 1716,
      "Nor": 1717,
      "motion": 1718,
      "accept": 1719,
      "acquaint": 1720,
      "quar": 1721,
      "Cristo": 1722,
      "ality": 1723,
      "usion": 1724,
      "serious": 1725,
      "mou": 1726,
      "thinking": 1727,
      "silent": 1728,
      "aston": 1729,
      "bri": 1730,
      "stairs": 1731,
      "forget": 1732,
      "steps": 1733,
      "further": 1734,
      "Villefort": 1735,
      "court": 1736,
      "Po": 1737,
      "trouble": 1738,
      "ages": 1739,
      "ignor": 1740,
      "Char": 1741,
      "ties": 1742,
      "prison": 1743,
      "walk": 1744,
      "ild": 1745,
      "ds": 1746,
      "twenty": 1747,
      "vain": 1748,
      "Le": 1749,
      "athe": 1750,
      "thoughts": 1751,
      "confess": 1752,
      "entirely": 1753,
      "ordin": 1754,
      "Dorothe": 1755,
      "anced": 1756,
      "tory": 1757,
      "viol": 1758,
      "Mont": 1759,
      "flow": 1760,
      "pes": 1761,
      "command": 1762,
      "success": 1763,
      "boat": 1764,
      "shad": 1765,
      "resh": 1766,
      "standing": 1767,
      "conduct": 1768,
      "slow": 1769,
      "aunt": 1770,
      "stu": 1771,
      "story": 1772,
      "dem": 1773,
      "ually": 1774,
      "pleasant": 1775,
      "forth": 1776,
      "sage": 1777,
      "fice": 1778,
      "speaking": 1779,
      "Catherine": 1780,
      "ger": 1781,
      "warm": 1782,
      "women": 1783,
      "ler": 1784,
      "slight": 1785,
      "situation": 1786,
      "gard": 1787,
      "Un": 1788,
      "stren": 1789,
      "exact": 1790,
      "depend": 1791,
      "circumstances": 1792,
      "cks": 1793,
      "Cha": 1794,
      "gold": 1795,
      "sisters": 1796,
      "ghed": 1797,
      "experi": 1798,
      "alth": 1799,
      "obliged": 1800,
      "Thy": 1801,
      "perfectly": 1802,
      "ific": 1803,
      "clock": 1804,
      "ina": 1805,
      "dra": 1806,
      "fancy": 1807,
      "conne": 1808,
      "yed": 1809,
      "recolle": 1810,
      "Mo": 1811,
      "suffici": 1812,
      "please": 1813,
      "Whi": 1814,
      "itor": 1815,
      "consequ": 1816,
      "several": 1817,
      "TH": 1818,
      "sole": 1819,
      "arch": 1820,
      "wait": 1821,
      "dream": 1822,
      "const": 1823,
      "rie": 1824,
      "Fred": 1825,
      "Good": 1826,
      "streng": 1827,
      "calm": 1828,
      "none": 1829,
      "ners": 1830,
      "isted": 1831,
      "nu": 1832,
      "compl": 1833,
      "endeav": 1834,
      "Bl": 1835,
      "morrow": 1836,
      "evil": 1837,
      "wrong": 1838,
      "gro": 1839,
      "jour": 1840,
      "glass": 1841,
      "Car": 1842,
      "prevent": 1843,
      "counten": 1844,
      "rich": 1845,
      "purpose": 1846,
      "excell": 1847,
      "Valancy": 1848,
      "complete": 1849,
      "fle": 1850,
      "ding": 1851,
      "ices": 1852,
      "beautiful": 1853,
      "ax": 1854,
      "carried": 1855,
      "Mary": 1856,
      "direct": 1857,
      "Athos": 1858,
      "Where": 1859,
      "spite": 1860,
      "tired": 1861,
      "living": 1862,
      "stopped": 1863,
      "ized": 1864,
      "uc": 1865,
      "uttered": 1866,
      "passion": 1867,
      "carry": 1868,
      "determined": 1869,
      "cat": 1870,
      "ladies": 1871,
      "conscious": 1872,
      "Lyd": 1873,
      "watch": 1874,
      "observed": 1875,
      "across": 1876,
      "difficul": 1877,
      "From": 1878,
      "Ive": 1879,
      "hab": 1880,
      "laid": 1881,
      "glo": 1882,
      "rec": 1883,
      "lying": 1884,
      "eness": 1885,
      "fut": 1886,
      "espe": 1887,
      "church": 1888,
      "Foot": 1889,
      "sit": 1890,
      "fas": 1891,
      "neigh": 1892,
      "closed": 1893,
      "moments": 1894,
      "iety": 1895,
      "giving": 1896,
      "top": 1897,
      "ounds": 1898,
      "scarcely": 1899,
      "depart": 1900,
      "cape": 1901,
      "eager": 1902,
      "drink": 1903,
      "acquaintance": 1904,
      "countenance": 1905,
      "conceal": 1906,
      "exclaimed": 1907,
      "Cap": 1908,
      "descri": 1909,
      "shop": 1910,
      "ased": 1911,
      "unity": 1912,
      "presence": 1913,
      "Footnote": 1914,
      "vel": 1915,
      "oni": 1916,
      "sake": 1917,
      "ters": 1918,
      "girls": 1919,
      "Con": 1920,
      "support": 1921,
      "arrived": 1922,
      "aste": 1923,
      "talking": 1924,
      "city": 1925,
      "easily": 1926,
      "distance": 1927,
      "advant": 1928,
      "prin": 1929,
      "ory": 1930,
      "var": 1931,
      "lies": 1932,
      "turning": 1933,
      "send": 1934,
      "hood": 1935,
      "afterwards": 1936,
      "grow": 1937,
      "isa": 1938,
      "courage": 1939,
      "beauty": 1940,
      "ordinary": 1941,
      "getting": 1942,
      "early": 1943,
      "sorrow": 1944,
      "ration": 1945,
      "anci": 1946,
      "tran": 1947,
      "ative": 1948,
      "floor": 1949,
      "escape": 1950,
      "fixed": 1951,
      "Dang": 1952,
      "satisfied": 1953,
      "suspic": 1954,
      "sitting": 1955,
      "cous": 1956,
      "ublic": 1957,
      "Bing": 1958,
      "accord": 1959,
      "surprise": 1960,
      "Bingley": 1961,
      "inqu": 1962,
      "likely": 1963,
      "chard": 1964,
      "write": 1965,
      "gar": 1966,
      "und": 1967,
      "rench": 1968,
      "whale": 1969,
      "eks": 1970,
      "ual": 1971,
      "knows": 1972,
      "possib": 1973,
      "scene": 1974,
      "Every": 1975,
      "expression": 1976,
      "Love": 1977,
      "fright": 1978,
      "maid": 1979,
      "peace": 1980,
      "firm": 1981,
      "sal": 1982,
      "service": 1983,
      "news": 1984,
      "repeated": 1985,
      "soft": 1986,
      "opport": 1987,
      "retched": 1988,
      "tom": 1989,
      "ges": 1990,
      "chamber": 1991,
      "cru": 1992,
      "future": 1993,
      "whatever": 1994,
      "lars": 1995,
      "music": 1996,
      "nest": 1997,
      "pu": 1998,
      "treat": 1999,
      "va": 2000,
      "grand": 2001,
      "pale": 2002,
      "gentlemen": 2003,
      "Danglars": 2004,
      "Bro": 2005,
      "wine": 2006,
      "post": 2007,
      "pursu": 2008,
      "increas": 2009,
      "rap": 2010,
      "fool": 2011,
      "acy": 2012,
      "aded": 2013,
      "apart": 2014,
      "prov": 2015,
      "dinner": 2016,
      "ben": 2017,
      "strength": 2018,
      "inform": 2019,
      "intent": 2020,
      "horses": 2021,
      "engage": 2022,
      "concl": 2023,
      "resent": 2024,
      "poc": 2025,
      "memor": 2026,
      "itten": 2027,
      "Dash": 2028,
      "attle": 2029,
      "Bennet": 2030,
      "cred": 2031,
      "line": 2032,
      "thats": 2033,
      "Thee": 2034,
      "pict": 2035,
      "Dashwood": 2036,
      "bon": 2037,
      "cially": 2038,
      "ference": 2039,
      "duty": 2040,
      "Lau": 2041,
      "occur": 2042,
      "reli": 2043,
      "ament": 2044,
      "cher": 2045,
      "uch": 2046,
      "perm": 2047,
      "bir": 2048,
      "osity": 2049,
      "Que": 2050,
      "extra": 2051,
      "Edward": 2052,
      "probably": 2053,
      "kiss": 2054,
      "makes": 2055,
      "months": 2056,
      "letters": 2057,
      "mond": 2058,
      "wed": 2059,
      "Monsieur": 2060,
      "fat": 2061,
      "tomorrow": 2062,
      "leaving": 2063,
      "bless": 2064,
      "board": 2065,
      "succeed": 2066,
      "suffer": 2067,
      "Johann": 2068,
      "sorry": 2069,
      "avo": 2070,
      "stud": 2071,
      "persu": 2072,
      "assist": 2073,
      "died": 2074,
      "promise": 2075,
      "cott": 2076,
      "faith": 2077,
      "bound": 2078,
      "weak": 2079,
      "seat": 2080,
      "journey": 2081,
      "servant": 2082,
      "offic": 2083,
      "emplo": 2084,
      "kov": 2085,
      "fathers": 2086,
      "ishment": 2087,
      "anim": 2088,
      "unto": 2089,
      "ries": 2090,
      "sail": 2091,
      "occup": 2092,
      "public": 2093,
      "iced": 2094,
      "instead": 2095,
      "raised": 2096,
      "drawing": 2097,
      "Lydgate": 2098,
      "Dr": 2099,
      "reply": 2100,
      "Richard": 2101,
      "nikov": 2102,
      "Qu": 2103,
      "ded": 2104,
      "gain": 2105,
      "charm": 2106,
      "eat": 2107,
      "stone": 2108,
      "instant": 2109,
      "deli": 2110,
      "knight": 2111,
      "broken": 2112,
      "engaged": 2113,
      "minute": 2114,
      "inced": 2115,
      "tim": 2116,
      "grief": 2117,
      "front": 2118,
      "Prof": 2119,
      "lling": 2120,
      "gaz": 2121,
      "waiting": 2122,
      "pon": 2123,
      "sad": 2124,
      "key": 2125,
      "blow": 2126,
      "fif": 2127,
      "smiled": 2128,
      "ater": 2129,
      "lived": 2130,
      "greater": 2131,
      "flat": 2132,
      "frequ": 2133,
      "ming": 2134,
      "enter": 2135,
      "mbled": 2136,
      "ible": 2137,
      "believed": 2138,
      "pati": 2139,
      "vill": 2140,
      "settled": 2141,
      "nearly": 2142,
      "mouth": 2143,
      "garden": 2144,
      "la": 2145,
      "essor": 2146,
      "These": 2147,
      "Pe": 2148,
      "fing": 2149,
      "Johanna": 2150,
      "fal": 2151,
      "supp": 2152,
      "det": 2153,
      "grace": 2154,
      "gle": 2155,
      "following": 2156,
      "avy": 2157,
      "English": 2158,
      "ense": 2159,
      "ising": 2160,
      "oth": 2161,
      "intell": 2162,
      "opportunity": 2163,
      "didnt": 2164,
      "oclock": 2165,
      "pity": 2166,
      "belong": 2167,
      "idered": 2168,
      "ech": 2169,
      "cheer": 2170,
      "spirit": 2171,
      "piece": 2172,
      "aching": 2173,
      "Did": 2174,
      "Dorothea": 2175,
      "lli": 2176,
      "Ber": 2177,
      "Yet": 2178,
      "effort": 2179,
      "interrup": 2180,
      "Porthos": 2181,
      "French": 2182,
      "taste": 2183,
      "allowed": 2184,
      "exactly": 2185,
      "filled": 2186,
      "err": 2187,
      "sold": 2188,
      "Albert": 2189,
      "Elo": 2190,
      "Montoni": 2191,
      "mn": 2192,
      "gall": 2193,
      "pping": 2194,
      "quickly": 2195,
      "meant": 2196,
      "Dont": 2197,
      "dam": 2198,
      "kne": 2199,
      "ency": 2200,
      "card": 2201,
      "fli": 2202,
      "fight": 2203,
      "race": 2204,
      "threw": 2205,
      "although": 2206,
      "servants": 2207,
      "especially": 2208,
      "phi": 2209,
      "lean": 2210,
      "youth": 2211,
      "princi": 2212,
      "smo": 2213,
      "bright": 2214,
      "written": 2215,
      "address": 2216,
      "erc": 2217,
      "cul": 2218,
      "rodu": 2219,
      "week": 2220,
      "suf": 2221,
      "admir": 2222,
      "advantage": 2223,
      "sensible": 2224,
      "claim": 2225,
      "crow": 2226,
      "convinced": 2227,
      "ines": 2228,
      "noble": 2229,
      "surprised": 2230,
      "Have": 2231,
      "coat": 2232,
      "caught": 2233,
      "Tho": 2234,
      "Captain": 2235,
      "beha": 2236,
      "talked": 2237,
      "Emma": 2238,
      "notice": 2239,
      "regret": 2240,
      "fresh": 2241,
      "ified": 2242,
      "senti": 2243,
      "uncle": 2244,
      "creature": 2245,
      "wound": 2246,
      "ourt": 2247,
      "pit": 2248,
      "Jen": 2249,
      "Sy": 2250,
      "oper": 2251,
      "kindness": 2252,
      "Rask": 2253,
      "ining": 2254,
      "save": 2255,
      "olnikov": 2256,
      "impro": 2257,
      "recogn": 2258,
      "Raskolnikov": 2259,
      "hill": 2260,
      "Professor": 2261,
      "bb": 2262,
      "society": 2263,
      "Lup": 2264,
      "throw": 2265,
      "yours": 2266,
      "burn": 2267,
      "fond": 2268,
      "instru": 2269,
      "ung": 2270,
      "cloud": 2271,
      "Morrel": 2272,
      "changed": 2273,
      "ilt": 2274,
      "bid": 2275,
      "worthy": 2276,
      "trave": 2277,
      "started": 2278,
      "rer": 2279,
      "appre": 2280,
      "below": 2281,
      "roy": 2282,
      "desc": 2283,
      "introdu": 2284,
      "understood": 2285,
      "earnest": 2286,
      "merely": 2287,
      "influ": 2288,
      "listened": 2289,
      "hion": 2290,
      "separ": 2291,
      "disappoint": 2292,
      "considered": 2293,
      "latter": 2294,
      "pract": 2295,
      "THE": 2296,
      "verse": 2297,
      "Thats": 2298,
      "despair": 2299,
      "pun": 2300,
      "stranger": 2301,
      "Te": 2302,
      "exist": 2303,
      "ively": 2304,
      "priv": 2305,
      "big": 2306,
      "worse": 2307,
      "Eloisa": 2308,
      "cou": 2309,
      "sses": 2310,
      "laughed": 2311,
      "beginning": 2312,
      "heavy": 2313,
      "shar": 2314,
      "box": 2315,
      "knowing": 2316,
      "div": 2317,
      "offer": 2318,
      "ns": 2319,
      "tten": 2320,
      "da": 2321,
      "ug": 2322,
      "thank": 2323,
      "symp": 2324,
      "force": 2325,
      "fig": 2326,
      "extreme": 2327,
      "pull": 2328,
      "receive": 2329,
      "polit": 2330,
      "Ge": 2331,
      "inal": 2332,
      "Ex": 2333,
      "feat": 2334,
      "Lupin": 2335,
      "erve": 2336,
      "sugg": 2337,
      "impati": 2338,
      "hung": 2339,
      "Hen": 2340,
      "ury": 2341,
      "reading": 2342,
      "corner": 2343,
      "green": 2344,
      "tily": 2345,
      "imagine": 2346,
      "shut": 2347,
      "abs": 2348,
      "trying": 2349,
      "thes": 2350,
      "assured": 2351,
      "confidence": 2352,
      "meas": 2353,
      "glance": 2354,
      "furn": 2355,
      "spl": 2356,
      "manners": 2357,
      "uni": 2358,
      "Cas": 2359,
      "habit": 2360,
      "meeting": 2361,
      "Dants": 2362,
      "Very": 2363,
      "langu": 2364,
      "solute": 2365,
      "particularly": 2366,
      "Are": 2367,
      "Tr": 2368,
      "def": 2369,
      "arer": 2370,
      "inct": 2371,
      "doctor": 2372,
      "bitter": 2373,
      "terrible": 2374,
      "wishes": 2375,
      "Don": 2376,
      "orn": 2377,
      "ours": 2378,
      "looks": 2379,
      "rent": 2380,
      "handsome": 2381,
      "uded": 2382,
      "cli": 2383,
      "lose": 2384,
      "terday": 2385,
      "decided": 2386,
      "Mid": 2387,
      "sword": 2388,
      "ardon": 2389,
      "neighbour": 2390,
      "pter": 2391,
      "justice": 2392,
      "III": 2393,
      "rov": 2394,
      "Jenning": 2395,
      "leg": 2396,
      "hearing": 2397,
      "spot": 2398,
      "La": 2399,
      "pers": 2400,
      "mothers": 2401,
      "equal": 2402,
      "attempt": 2403,
      "ences": 2404,
      "hers": 2405,
      "Geor": 2406,
      "greatest": 2407,
      "showed": 2408,
      "remark": 2409,
      "pride": 2410,
      "commun": 2411,
      "later": 2412,
      "castle": 2413,
      "rejo": 2414,
      "single": 2415,
      "mi": 2416,
      "moon": 2417,
      "faction": 2418,
      "learn": 2419,
      "pat": 2420,
      "culiar": 2421,
      "ital": 2422,
      "itated": 2423,
      "suggest": 2424,
      "passing": 2425,
      "bene": 2426,
      "caut": 2427,
      "gree": 2428,
      "peculiar": 2429,
      "today": 2430,
      "iv": 2431,
      "mbling": 2432,
      "bra": 2433,
      "phe": 2434,
      "devo": 2435,
      "perceived": 2436,
      "somewhat": 2437,
      "contrary": 2438,
      "straight": 2439,
      "liked": 2440,
      "fortunate": 2441,
      "gotten": 2442,
      "impress": 2443,
      "police": 2444,
      "indif": 2445,
      "Aram": 2446,
      "fit": 2447,
      "unless": 2448,
      "spoken": 2449,
      "promised": 2450,
      "Ca": 2451,
      "gment": 2452,
      "repro": 2453,
      "lod": 2454,
      "paid": 2455,
      "kill": 2456,
      "judge": 2457,
      "luck": 2458,
      "Hol": 2459,
      "andon": 2460,
      "arrow": 2461,
      "slowly": 2462,
      "difficulty": 2463,
      "sw": 2464,
      "sion": 2465,
      "Man": 2466,
      "itable": 2467,
      "toward": 2468,
      "Anne": 2469,
      "memory": 2470,
      "hath": 2471,
      "absolute": 2472,
      "demand": 2473,
      "West": 2474,
      "gover": 2475,
      "blue": 2476,
      "supposed": 2477,
      "affected": 2478,
      "Or": 2479,
      "bered": 2480,
      "figure": 2481,
      "Aramis": 2482,
      "fun": 2483,
      "speech": 2484,
      "satisfaction": 2485,
      "mal": 2486,
      "request": 2487,
      "shook": 2488,
      "resolved": 2489,
      "willing": 2490,
      "shame": 2491,
      "ancing": 2492,
      "Valent": 2493,
      "passage": 2494,
      "fashion": 2495,
      "degree": 2496,
      "mentioned": 2497,
      "rapid": 2498,
      "iable": 2499,
      "author": 2500,
      "companion": 2501,
      "sufficient": 2502,
      "faint": 2503,
      "neck": 2504,
      "breakfast": 2505,
      "ainted": 2506,
      "choly": 2507,
      "gen": 2508,
      "assure": 2509,
      "armed": 2510,
      "Perhaps": 2511,
      "temper": 2512,
      "third": 2513,
      "While": 2514,
      "pocket": 2515,
      "18": 2516,
      "eight": 2517,
      "rain": 2518,
      "melan": 2519,
      "comfortable": 2520,
      "melancholy": 2521,
      "twi": 2522,
      "lift": 2523,
      "beneath": 2524,
      "super": 2525,
      "Amy": 2526,
      "distress": 2527,
      "curiosity": 2528,
      "aster": 2529,
      "quis": 2530,
      "ban": 2531,
      "sick": 2532,
      "yesterday": 2533,
      "trees": 2534,
      "profess": 2535,
      "arrival": 2536,
      "Ce": 2537,
      "Fran": 2538,
      "delic": 2539,
      "oughby": 2540,
      "Willoughby": 2541,
      "amed": 2542,
      "attend": 2543,
      "Casau": 2544,
      "yard": 2545,
      "ening": 2546,
      "forced": 2547,
      "drawn": 2548,
      "pered": 2549,
      "Anth": 2550,
      "ease": 2551,
      "Ha": 2552,
      "James": 2553,
      "health": 2554,
      "spent": 2555,
      "thro": 2556,
      "Anthony": 2557,
      "erable": 2558,
      "trans": 2559,
      "communic": 2560,
      "Min": 2561,
      "Tob": 2562,
      "sin": 2563,
      "maj": 2564,
      "cand": 2565,
      "squ": 2566,
      "Meg": 2567,
      "tue": 2568,
      "covered": 2569,
      "Thus": 2570,
      "learned": 2571,
      "Street": 2572,
      "kes": 2573,
      "azar": 2574,
      "discovered": 2575,
      "design": 2576,
      "cousin": 2577,
      "gin": 2578,
      "reed": 2579,
      "Lovett": 2580,
      "tee": 2581,
      "tray": 2582,
      "ishing": 2583,
      "writing": 2584,
      "itch": 2585,
      "delay": 2586,
      "aware": 2587,
      "Chapter": 2588,
      "excellent": 2589,
      "ounced": 2590,
      "solemn": 2591,
      "beside": 2592,
      "burst": 2593,
      "witness": 2594,
      "Gr": 2595,
      "phy": 2596,
      "breath": 2597,
      "books": 2598,
      "nice": 2599,
      "clothes": 2600,
      "erous": 2601,
      "loud": 2602,
      "Com": 2603,
      "Never": 2604,
      "Uly": 2605,
      "Wo": 2606,
      "alarm": 2607,
      "hopes": 2608,
      "sharp": 2609,
      "Ulysses": 2610,
      "ball": 2611,
      "host": 2612,
      "pet": 2613,
      "simple": 2614,
      "Valanc": 2615,
      "queen": 2616,
      "Such": 2617,
      "fac": 2618,
      "iam": 2619,
      "wro": 2620,
      "fail": 2621,
      "prote": 2622,
      "walking": 2623,
      "brow": 2624,
      "fate": 2625,
      "mort": 2626,
      "inno": 2627,
      "forgotten": 2628,
      "using": 2629,
      "Nothing": 2630,
      "colle": 2631,
      "unhappy": 2632,
      "seek": 2633,
      "watched": 2634,
      "persons": 2635,
      "rawford": 2636,
      "guess": 2637,
      "avoid": 2638,
      "apprehen": 2639,
      "distur": 2640,
      "chool": 2641,
      "prepared": 2642,
      "kno": 2643,
      "consent": 2644,
      "virtue": 2645,
      "May": 2646,
      "killed": 2647,
      "capable": 2648,
      "stop": 2649,
      "finding": 2650,
      "sacri": 2651,
      "oppos": 2652,
      "intended": 2653,
      "meaning": 2654,
      "Crawford": 2655,
      "lab": 2656,
      "orders": 2657,
      "afford": 2658,
      "Valentine": 2659,
      "AR": 2660,
      "dy": 2661,
      "grew": 2662,
      "ron": 2663,
      "sli": 2664,
      "non": 2665,
      "inj": 2666,
      "friendship": 2667,
      "Bul": 2668,
      "offered": 2669,
      "noise": 2670,
      "important": 2671,
      "oul": 2672,
      "angry": 2673,
      "proof": 2674,
      "simply": 2675,
      "dreadful": 2676,
      "hoped": 2677,
      "charge": 2678,
      "besides": 2679,
      "shadow": 2680,
      "deb": 2681,
      "lock": 2682,
      "tive": 2683,
      "consequence": 2684,
      "behavi": 2685,
      "Jennings": 2686,
      "rooms": 2687,
      "concerning": 2688,
      "inquir": 2689,
      "Indeed": 2690,
      "fallen": 2691,
      "ere": 2692,
      "mag": 2693,
      "vere": 2694,
      "anxiety": 2695,
      "number": 2696,
      "ourselves": 2697,
      "captain": 2698,
      "Mazar": 2699,
      "Ger": 2700,
      "rang": 2701,
      "reach": 2702,
      "absence": 2703,
      "wrote": 2704,
      "Sp": 2705,
      "ny": 2706,
      "Tobias": 2707,
      "alter": 2708,
      "ceiving": 2709,
      "instantly": 2710,
      "directly": 2711,
      "dog": 2712,
      "attack": 2713,
      "See": 2714,
      "pardon": 2715,
      "zz": 2716,
      "erved": 2717,
      "devil": 2718,
      "smiling": 2719,
      "crime": 2720,
      "understanding": 2721,
      "Valancourt": 2722,
      "Wick": 2723,
      "arest": 2724,
      "bly": 2725,
      "ustration": 2726,
      "finished": 2727,
      "influence": 2728,
      "private": 2729,
      "lives": 2730,
      "Holmes": 2731,
      "Ab": 2732,
      "mir": 2733,
      "ouse": 2734,
      "However": 2735,
      "noon": 2736,
      "ends": 2737,
      "cles": 2738,
      "murder": 2739,
      "escap": 2740,
      "bles": 2741,
      "venture": 2742,
      "seven": 2743,
      "teen": 2744,
      "ause": 2745,
      "event": 2746,
      "asp": 2747,
      "delighted": 2748,
      "exceed": 2749,
      "mit": 2750,
      "aud": 2751,
      "sigh": 2752,
      "por": 2753,
      "fami": 2754,
      "Can": 2755,
      "false": 2756,
      "suffered": 2757,
      "due": 2758,
      "terror": 2759,
      "fles": 2760,
      "gare": 2761,
      "wand": 2762,
      "attach": 2763,
      "lest": 2764,
      "indul": 2765,
      "orig": 2766,
      "loss": 2767,
      "proud": 2768,
      "Franz": 2769,
      "cab": 2770,
      "iron": 2771,
      "brid": 2772,
      "spring": 2773,
      "advice": 2774,
      "waited": 2775,
      "report": 2776,
      "truly": 2777,
      "seated": 2778,
      "behaviour": 2779,
      "fold": 2780,
      "farther": 2781,
      "itors": 2782,
      "broke": 2783,
      "ON": 2784,
      "action": 2785,
      "Bulstro": 2786,
      "Cad": 2787,
      "grate": 2788,
      "share": 2789,
      "attra": 2790,
      "generally": 2791,
      "expressed": 2792,
      "mistress": 2793,
      "Mazarin": 2794,
      "ald": 2795,
      "ears": 2796,
      "obey": 2797,
      "ceased": 2798,
      "Rosa": 2799,
      "bank": 2800,
      "arth": 2801,
      "dressed": 2802,
      "som": 2803,
      "ribut": 2804,
      "happen": 2805,
      "honest": 2806,
      "Coll": 2807,
      "declared": 2808,
      "shout": 2809,
      "rising": 2810,
      "entertain": 2811,
      "opening": 2812,
      "acquainted": 2813,
      "emotion": 2814,
      "fro": 2815,
      "theat": 2816,
      "pounds": 2817,
      "beat": 2818,
      "exe": 2819,
      "delightful": 2820,
      "possession": 2821,
      "mach": 2822,
      "otherwise": 2823,
      "sport": 2824,
      "Illustration": 2825,
      "Harri": 2826,
      "school": 2827,
      "wretched": 2828,
      "explain": 2829,
      "darkness": 2830,
      "mistaken": 2831,
      "circumstance": 2832,
      "result": 2833,
      "ingu": 2834,
      "Their": 2835,
      "condition": 2836,
      "anti": 2837,
      "seas": 2838,
      "rehen": 2839,
      "Laurie": 2840,
      "ta": 2841,
      "libert": 2842,
      "England": 2843,
      "information": 2844,
      "Queen": 2845,
      "ability": 2846,
      "ulous": 2847,
      "imagination": 2848,
      "hide": 2849,
      "ague": 2850,
      "apparent": 2851,
      "opposite": 2852,
      "idently": 2853,
      "honor": 2854,
      "engagement": 2855,
      "mbered": 2856,
      "twel": 2857,
      "thrown": 2858,
      "cting": 2859,
      "cience": 2860,
      "compli": 2861,
      "surround": 2862,
      "miles": 2863,
      "eper": 2864,
      "intim": 2865,
      "rious": 2866,
      "cil": 2867,
      "hang": 2868,
      "hither": 2869,
      "lovely": 2870,
      "distingu": 2871,
      "remembered": 2872,
      "played": 2873,
      "test": 2874,
      "vering": 2875,
      "questions": 2876,
      "thorough": 2877,
      "zy": 2878,
      "hig": 2879,
      "conven": 2880,
      "mater": 2881,
      "accus": 2882,
      "interesting": 2883,
      "judgment": 2884,
      "according": 2885,
      "fee": 2886,
      "acious": 2887,
      "ods": 2888,
      "ets": 2889,
      "teau": 2890,
      "bot": 2891,
      "picture": 2892,
      "charming": 2893,
      "Ju": 2894,
      "oke": 2895,
      "conveni": 2896,
      "ists": 2897,
      "resolution": 2898,
      "sty": 2899,
      "maam": 2900,
      "equally": 2901,
      "produced": 2902,
      "path": 2903,
      "reve": 2904,
      "Allah": 2905,
      "born": 2906,
      "occurred": 2907,
      "liberty": 2908,
      "bs": 2909,
      "weeks": 2910,
      "outside": 2911,
      "speed": 2912,
      "regular": 2913,
      "Casaubon": 2914,
      "sought": 2915,
      "cruel": 2916,
      "Fair": 2917,
      "thick": 2918,
      "succeeded": 2919,
      "horror": 2920,
      "intention": 2921,
      "AN": 2922,
      "Had": 2923,
      "cra": 2924,
      "venge": 2925,
      "blind": 2926,
      "ili": 2927,
      "wide": 2928,
      "cre": 2929,
      "fare": 2930,
      "En": 2931,
      "Oak": 2932,
      "apo": 2933,
      "theres": 2934,
      "hint": 2935,
      "goes": 2936,
      "disposition": 2937,
      "mony": 2938,
      "ideas": 2939,
      "direction": 2940,
      "restr": 2941,
      "represent": 2942,
      "touched": 2943,
      "Tell": 2944,
      "asha": 2945,
      "entreat": 2946,
      "ships": 2947,
      "eleg": 2948,
      "twelve": 2949,
      "Son": 2950,
      "wear": 2951,
      "breast": 2952,
      "Just": 2953,
      "compass": 2954,
      "paused": 2955,
      "holding": 2956,
      "daughters": 2957,
      "middle": 2958,
      "tall": 2959,
      "river": 2960,
      "cler": 2961,
      "comprehen": 2962,
      "ield": 2963,
      "difference": 2964,
      "walls": 2965,
      "EN": 2966,
      "whal": 2967,
      "informed": 2968,
      "sens": 2969,
      "nes": 2970,
      "rise": 2971,
      "nobody": 2972,
      "ali": 2973,
      "mum": 2974,
      "proceeded": 2975,
      "enced": 2976,
      "welcome": 2977,
      "laughing": 2978,
      "touch": 2979,
      "astonishment": 2980,
      "possibly": 2981,
      "seized": 2982,
      "tering": 2983,
      "licity": 2984,
      "study": 2985,
      "tro": 2986,
      "superi": 2987,
      "carefully": 2988,
      "LE": 2989,
      "swi": 2990,
      "threat": 2991,
      "posit": 2992,
      "render": 2993,
      "cking": 2994,
      "greatly": 2995,
      "interested": 2996,
      "experience": 2997,
      "Oakley": 2998,
      "Lou": 2999,
      "search": 3000,
      "betray": 3001,
      "weep": 3002,
      "dom": 3003,
      "ples": 3004,
      "Heaven": 3005,
      "desired": 3006,
      "hurried": 3007,
      "completely": 3008,
      "Ahab": 3009,
      "tong": 3010,
      "ism": 3011,
      "fulness": 3012,
      "hearts": 3013,
      "Li": 3014,
      "fru": 3015,
      "prefer": 3016,
      "quietly": 3017,
      "Vir": 3018,
      "parl": 3019,
      "joined": 3020,
      "garet": 3021,
      "moder": 3022,
      "ify": 3023,
      "events": 3024,
      "shire": 3025,
      "Lydi": 3026,
      "hin": 3027,
      "lst": 3028,
      "pic": 3029,
      "prospect": 3030,
      "distant": 3031,
      "pointed": 3032,
      "altogether": 3033,
      "hate": 3034,
      "observ": 3035,
      "matters": 3036,
      "windows": 3037,
      "hurry": 3038,
      "quarter": 3039,
      "extraordinary": 3040,
      "explan": 3041,
      "telling": 3042,
      "interrupted": 3043,
      "sincere": 3044,
      "misery": 3045,
      "umph": 3046,
      "XV": 3047,
      "rous": 3048,
      "difficult": 3049,
      "superior": 3050,
      "guest": 3051,
      "ises": 3052,
      "ize": 3053,
      "nal": 3054,
      "ashed": 3055,
      "spread": 3056,
      "running": 3057,
      "Poor": 3058,
      "philo": 3059,
      "unable": 3060,
      "etc": 3061,
      "obje": 3062,
      "sche": 3063,
      "Rome": 3064,
      "apartment": 3065,
      "impression": 3066,
      "proved": 3067,
      "portion": 3068,
      "une": 3069,
      "lines": 3070,
      "Henry": 3071,
      "France": 3072,
      "ker": 3073,
      "office": 3074,
      "Bart": 3075,
      "tian": 3076,
      "tel": 3077,
      "surely": 3078,
      "Long": 3079,
      "bent": 3080,
      "ature": 3081,
      "rig": 3082,
      "cost": 3083,
      "vious": 3084,
      "vessel": 3085,
      "month": 3086,
      "horri": 3087,
      "considerable": 3088,
      "build": 3089,
      "Sween": 3090,
      "ii": 3091,
      "sn": 3092,
      "lia": 3093,
      "exert": 3094,
      "narrow": 3095,
      "cip": 3096,
      "William": 3097,
      "praise": 3098,
      "importance": 3099,
      "alous": 3100,
      "colour": 3101,
      "frequently": 3102,
      "ashamed": 3103,
      "inn": 3104,
      "attemp": 3105,
      "ordered": 3106,
      "sell": 3107,
      "convi": 3108,
      "affect": 3109,
      "rence": 3110,
      "supper": 3111,
      "splend": 3112,
      "Rosamond": 3113,
      "Collins": 3114,
      "Sweeney": 3115,
      "dim": 3116,
      "fault": 3117,
      "Du": 3118,
      "IN": 3119,
      "harm": 3120,
      "alive": 3121,
      "doors": 3122,
      "Roche": 3123,
      "gratitude": 3124,
      "Wickham": 3125,
      "pause": 3126,
      "broad": 3127,
      "various": 3128,
      "admiration": 3129,
      "prove": 3130,
      "affairs": 3131,
      "Bulstrode": 3132,
      "philoso": 3133,
      "Even": 3134,
      "stir": 3135,
      "fears": 3136,
      "feared": 3137,
      "presented": 3138,
      "Brad": 3139,
      "mission": 3140,
      "Knight": 3141,
      "yield": 3142,
      "amuse": 3143,
      "amaz": 3144,
      "bore": 3145,
      "served": 3146,
      "evidently": 3147,
      "putting": 3148,
      "woods": 3149,
      "approached": 3150,
      "painful": 3151,
      "madam": 3152,
      "bella": 3153,
      "George": 3154,
      "nur": 3155,
      "thin": 3156,
      "lover": 3157,
      "Syme": 3158,
      "log": 3159,
      "mistake": 3160,
      "miserable": 3161,
      "cing": 3162,
      "amiable": 3163,
      "resp": 3164,
      "absolutely": 3165,
      "Thor": 3166,
      "quire": 3167,
      "mbers": 3168,
      "accident": 3169,
      "sky": 3170,
      "prisoner": 3171,
      "language": 3172,
      "Id": 3173,
      "wers": 3174,
      "arrange": 3175,
      "features": 3176,
      "Was": 3177,
      "ray": 3178,
      "educ": 3179,
      "arily": 3180,
      "noticed": 3181,
      "existence": 3182,
      "drag": 3183,
      "excuse": 3184,
      "dock": 3185,
      "fanci": 3186,
      "ues": 3187,
      "stream": 3188,
      "dropped": 3189,
      "Pal": 3190,
      "oh": 3191,
      "unknown": 3192,
      "grad": 3193,
      "bas": 3194,
      "height": 3195,
      "abb": 3196,
      "stor": 3197,
      "nette": 3198,
      "papers": 3199,
      "Pro": 3200,
      "ics": 3201,
      "period": 3202,
      "tonight": 3203,
      "hurt": 3204,
      "recomm": 3205,
      "bold": 3206,
      "17": 3207,
      "dign": 3208,
      "drive": 3209,
      "Certain": 3210,
      "naturally": 3211,
      "omy": 3212,
      "pure": 3213,
      "rate": 3214,
      "coach": 3215,
      "Beth": 3216,
      "brothers": 3217,
      "finite": 3218,
      "endeavour": 3219,
      "sumed": 3220,
      "fet": 3221,
      "employ": 3222,
      "acle": 3223,
      "bowed": 3224,
      "contemp": 3225,
      "mot": 3226,
      "mercy": 3227,
      "occupied": 3228,
      "iers": 3229,
      "moving": 3230,
      "posing": 3231,
      "pron": 3232,
      "advanced": 3233,
      "main": 3234,
      "vic": 3235,
      "mountains": 3236,
      "tire": 3237,
      "angers": 3238,
      "cottage": 3239,
      "expl": 3240,
      "ically": 3241,
      "perceive": 3242,
      "reasonable": 3243,
      "quet": 3244,
      "everybody": 3245,
      "join": 3246,
      "calling": 3247,
      "crowd": 3248,
      "bal": 3249,
      "Annette": 3250,
      "sne": 3251,
      "vast": 3252,
      "ounce": 3253,
      "estab": 3254,
      "keeping": 3255,
      "semb": 3256,
      "hot": 3257,
      "wore": 3258,
      "secure": 3259,
      "franc": 3260,
      "concern": 3261,
      "IV": 3262,
      "isto": 3263,
      "parts": 3264,
      "gives": 3265,
      "ots": 3266,
      "silver": 3267,
      "fly": 3268,
      "mut": 3269,
      "rough": 3270,
      "resto": 3271,
      "anted": 3272,
      "lower": 3273,
      "highly": 3274,
      "Take": 3275,
      "cure": 3276,
      "mill": 3277,
      "este": 3278,
      "leep": 3279,
      "pol": 3280,
      "mance": 3281,
      "actually": 3282,
      "dared": 3283,
      "shot": 3284,
      "enemy": 3285,
      "ubert": 3286,
      "whispered": 3287,
      "places": 3288,
      "iously": 3289,
      "cured": 3290,
      "Look": 3291,
      "escaped": 3292,
      "Red": 3293,
      "gust": 3294,
      "press": 3295,
      "agreed": 3296,
      "suspicion": 3297,
      "bread": 3298,
      "ost": 3299,
      "cook": 3300,
      "aining": 3301,
      "value": 3302,
      "pressed": 3303,
      "summer": 3304,
      "dangerous": 3305,
      "execut": 3306,
      "Certainly": 3307,
      "vid": 3308,
      "tea": 3309,
      "Arab": 3310,
      "besto": 3311,
      "tenderness": 3312,
      "violent": 3313,
      "Brooke": 3314,
      "Harriet": 3315,
      "dry": 3316,
      "fra": 3317,
      "ovna": 3318,
      "fifty": 3319,
      "Fe": 3320,
      "High": 3321,
      "suit": 3322,
      "myster": 3323,
      "unk": 3324,
      "shud": 3325,
      "visible": 3326,
      "attachment": 3327,
      "Rand": 3328,
      "iter": 3329,
      "acing": 3330,
      "possessed": 3331,
      "grateful": 3332,
      "Bes": 3333,
      "Farr": 3334,
      "severe": 3335,
      "aled": 3336,
      "desir": 3337,
      "Margaret": 3338,
      "trembling": 3339,
      "New": 3340,
      "nie": 3341,
      "snow": 3342,
      "prud": 3343,
      "desert": 3344,
      "rushed": 3345,
      "ctive": 3346,
      "seless": 3347,
      "indu": 3348,
      "tram": 3349,
      "cial": 3350,
      "watching": 3351,
      "Che": 3352,
      "Our": 3353,
      "ram": 3354,
      "sooner": 3355,
      "aside": 3356,
      "rot": 3357,
      "meric": 3358,
      "Americ": 3359,
      "itary": 3360,
      "excite": 3361,
      "excited": 3362,
      "discover": 3363,
      "Saint": 3364,
      "argu": 3365,
      "Upon": 3366,
      "hous": 3367,
      "tle": 3368,
      "ades": 3369,
      "Theres": 3370,
      "evident": 3371,
      "choice": 3372,
      "Thank": 3373,
      "wonderful": 3374,
      "Virgin": 3375,
      "Sun": 3376,
      "weather": 3377,
      "cool": 3378,
      "anybody": 3379,
      "Gard": 3380,
      "Beau": 3381,
      "empty": 3382,
      "brave": 3383,
      "mummy": 3384,
      "explanation": 3385,
      "Aubert": 3386,
      "Ne": 3387,
      "theless": 3388,
      "wants": 3389,
      "Only": 3390,
      "assistance": 3391,
      "francs": 3392,
      "esteem": 3393,
      "fu": 3394,
      "reck": 3395,
      "ator": 3396,
      "entrance": 3397,
      "uses": 3398,
      "esty": 3399,
      "thirty": 3400,
      "isnt": 3401,
      "unfortunate": 3402,
      "whence": 3403,
      "parti": 3404,
      "March": 3405,
      "Though": 3406,
      "extremely": 3407,
      "explained": 3408,
      "Frank": 3409,
      "ping": 3410,
      "vey": 3411,
      "terms": 3412,
      "worn": 3413,
      "invol": 3414,
      "curious": 3415,
      "aly": 3416,
      "tible": 3417,
      "disappeared": 3418,
      "anche": 3419,
      "Braddock": 3420,
      "dance": 3421,
      "nine": 3422,
      "retired": 3423,
      "winter": 3424,
      "required": 3425,
      "myst": 3426,
      "tier": 3427,
      "credit": 3428,
      "removed": 3429,
      "Alas": 3430,
      "profession": 3431,
      "mortal": 3432,
      "Ferr": 3433,
      "cop": 3434,
      "Van": 3435,
      "serve": 3436,
      "pleasing": 3437,
      "presently": 3438,
      "valu": 3439,
      "ip": 3440,
      "muttered": 3441,
      "attended": 3442,
      "rested": 3443,
      "match": 3444,
      "addressed": 3445,
      "property": 3446,
      "ignorant": 3447,
      "style": 3448,
      "toler": 3449,
      "ior": 3450,
      "lance": 3451,
      "disposed": 3452,
      "shoulders": 3453,
      "consideration": 3454,
      "companions": 3455,
      "Charles": 3456,
      "throat": 3457,
      "Pl": 3458,
      "rim": 3459,
      "ards": 3460,
      "marked": 3461,
      "mighty": 3462,
      "officers": 3463,
      "battle": 3464,
      "Chr": 3465,
      "necessity": 3466,
      "Edm": 3467,
      "observe": 3468,
      "Caderous": 3469,
      "Alice": 3470,
      "fish": 3471,
      "rage": 3472,
      "prec": 3473,
      "subst": 3474,
      "benef": 3475,
      "exerc": 3476,
      "chill": 3477,
      "ails": 3478,
      "cret": 3479,
      "hero": 3480,
      "discus": 3481,
      "usually": 3482,
      "tranqu": 3483,
      "Gu": 3484,
      "assur": 3485,
      "returning": 3486,
      "crossed": 3487,
      "listening": 3488,
      "respond": 3489,
      "Master": 3490,
      "ture": 3491,
      "asleep": 3492,
      "blame": 3493,
      "awa": 3494,
      "Har": 3495,
      "dying": 3496,
      "song": 3497,
      "twice": 3498,
      "Still": 3499,
      "conc": 3500,
      "clever": 3501,
      "busy": 3502,
      "Prince": 3503,
      "drove": 3504,
      "tuous": 3505,
      "Elt": 3506,
      "mour": 3507,
      "atic": 3508,
      "asking": 3509,
      "history": 3510,
      "fax": 3511,
      "senses": 3512,
      "strugg": 3513,
      "summon": 3514,
      "relief": 3515,
      "tongue": 3516,
      "fill": 3517,
      "gay": 3518,
      "parent": 3519,
      "stup": 3520,
      "perfor": 3521,
      "begun": 3522,
      "officer": 3523,
      "zed": 3524,
      "oubles": 3525,
      "hosp": 3526,
      "doubted": 3527,
      "sentiments": 3528,
      "Bo": 3529,
      "Fri": 3530,
      "preced": 3531,
      "chest": 3532,
      "recovered": 3533,
      "deeply": 3534,
      "concerned": 3535,
      "Ra": 3536,
      "istr": 3537,
      "comb": 3538,
      "vision": 3539,
      "ushing": 3540,
      "conviction": 3541,
      "whilst": 3542,
      "wouldnt": 3543,
      "spare": 3544,
      "likewise": 3545,
      "overcome": 3546,
      "grie": 3547,
      "departure": 3548,
      "ires": 3549,
      "pisto": 3550,
      "tur": 3551,
      "consol": 3552,
      "excess": 3553,
      "civil": 3554,
      "intend": 3555,
      "heads": 3556,
      "measure": 3557,
      "Caderousse": 3558,
      "Father": 3559,
      "Pet": 3560,
      "inquired": 3561,
      "forgot": 3562,
      "nearer": 3563,
      "indign": 3564,
      "arrass": 3565,
      "drop": 3566,
      "familiar": 3567,
      "theatre": 3568,
      "horrible": 3569,
      "Cli": 3570,
      "deck": 3571,
      "afternoon": 3572,
      "station": 3573,
      "negle": 3574,
      "ilty": 3575,
      "leton": 3576,
      "zen": 3577,
      "doth": 3578,
      "leaves": 3579,
      "Besides": 3580,
      "Ferrars": 3581,
      "lately": 3582,
      "pair": 3583,
      "iny": 3584,
      "soever": 3585,
      "vig": 3586,
      "refused": 3587,
      "houses": 3588,
      "ius": 3589,
      "tw": 3590,
      "takes": 3591,
      "pop": 3592,
      "simil": 3593,
      "hastily": 3594,
      "lets": 3595,
      "triumph": 3596,
      "colonel": 3597,
      "finger": 3598,
      "gently": 3599,
      "behold": 3600,
      "weight": 3601,
      "lim": 3602,
      "Roman": 3603,
      "stern": 3604,
      "Hope": 3605,
      "increased": 3606,
      "Wood": 3607,
      "gained": 3608,
      "aughter": 3609,
      "invitation": 3610,
      "astonished": 3611,
      "Lydia": 3612,
      "bod": 3613,
      "relie": 3614,
      "edi": 3615,
      "affli": 3616,
      "lively": 3617,
      "kissed": 3618,
      "Knightley": 3619,
      "del": 3620,
      "resist": 3621,
      "embarrass": 3622,
      "Weston": 3623,
      "Sha": 3624,
      "game": 3625,
      "iding": 3626,
      "shoulder": 3627,
      "conscience": 3628,
      "ception": 3629,
      "suffering": 3630,
      "playing": 3631,
      "inclined": 3632,
      "knees": 3633,
      "Jas": 3634,
      "LI": 3635,
      "thinks": 3636,
      "lighted": 3637,
      "lotte": 3638,
      "ais": 3639,
      "moise": 3640,
      "accompan": 3641,
      "quit": 3642,
      "ults": 3643,
      "clean": 3644,
      "flowers": 3645,
      "compassion": 3646,
      "couldnt": 3647,
      "sensib": 3648,
      "personal": 3649,
      "counter": 3650,
      "Charlotte": 3651,
      "Eu": 3652,
      "revol": 3653,
      "excl": 3654,
      "Morcer": 3655,
      "midst": 3656,
      "grey": 3657,
      "lament": 3658,
      "sco": 3659,
      "rock": 3660,
      "ption": 3661,
      "lands": 3662,
      "relation": 3663,
      "example": 3664,
      "Morcerf": 3665,
      "Gree": 3666,
      "insult": 3667,
      "kets": 3668,
      "whenever": 3669,
      "indis": 3670,
      "sons": 3671,
      "instance": 3672,
      "bottom": 3673,
      "Whe": 3674,
      "mass": 3675,
      "wra": 3676,
      "shore": 3677,
      "refuse": 3678,
      "Fairfax": 3679,
      "parlour": 3680,
      "gif": 3681,
      "remind": 3682,
      "acknowled": 3683,
      "manage": 3684,
      "jealous": 3685,
      "constant": 3686,
      "moiselle": 3687,
      "Would": 3688,
      "gates": 3689,
      "trem": 3690,
      "deceived": 3691,
      "apt": 3692,
      "bott": 3693,
      "staircase": 3694,
      "catch": 3695,
      "concealed": 3696,
      "fingers": 3697,
      "cep": 3698,
      "space": 3699,
      "safety": 3700,
      "couple": 3701,
      "asped": 3702,
      "suspect": 3703,
      "relig": 3704,
      "corre": 3705,
      "sympath": 3706,
      "tes": 3707,
      "velo": 3708,
      "agg": 3709,
      "amount": 3710,
      "march": 3711,
      "favourite": 3712,
      "drawingroom": 3713,
      "dust": 3714,
      "sink": 3715,
      "beli": 3716,
      "pled": 3717,
      "friendly": 3718,
      "Fer": 3719,
      "Pres": 3720,
      "Shall": 3721,
      "nod": 3722,
      "thanks": 3723,
      "Because": 3724,
      "plainly": 3725,
      "boys": 3726,
      "Elli": 3727,
      "kni": 3728,
      "istic": 3729,
      "wicked": 3730,
      "prevented": 3731,
      "sacrifice": 3732,
      "fy": 3733,
      "ju": 3734,
      "locked": 3735,
      "saved": 3736,
      "cheeks": 3737,
      "madame": 3738,
      "mountain": 3739,
      "creatures": 3740,
      "carrying": 3741,
      "village": 3742,
      "lifted": 3743,
      "fancied": 3744,
      "similar": 3745,
      "Signor": 3746,
      "alian": 3747,
      "food": 3748,
      "anyone": 3749,
      "rendered": 3750,
      "shown": 3751,
      "inclination": 3752,
      "magn": 3753,
      "aloud": 3754,
      "alley": 3755,
      "modest": 3756,
      "fever": 3757,
      "bosom": 3758,
      "desper": 3759,
      "appears": 3760,
      "stepped": 3761,
      "frightened": 3762,
      "Ma": 3763,
      "Ste": 3764,
      "obtain": 3765,
      "famous": 3766,
      "objects": 3767,
      "bringing": 3768,
      "consciousness": 3769,
      "sentiment": 3770,
      "Fare": 3771,
      "stif": 3772,
      "rope": 3773,
      "adi": 3774,
      "disgust": 3775,
      "audi": 3776,
      "igence": 3777,
      "mounted": 3778,
      "connected": 3779,
      "foolish": 3780,
      "Midd": 3781,
      "whales": 3782,
      "pin": 3783,
      "wing": 3784,
      "aging": 3785,
      "Edmund": 3786,
      "fes": 3787,
      "inlaw": 3788,
      "solic": 3789,
      "ric": 3790,
      "train": 3791,
      "brain": 3792,
      "guilty": 3793,
      "fortunes": 3794,
      "caused": 3795,
      "regarded": 3796,
      "Petrov": 3797,
      "dull": 3798,
      "emer": 3799,
      "tree": 3800,
      "llen": 3801,
      "confusion": 3802,
      "ferent": 3803,
      "leading": 3804,
      "Sonia": 3805,
      "Two": 3806,
      "bare": 3807,
      "consult": 3808,
      "wholly": 3809,
      "remarked": 3810,
      "ancient": 3811,
      "bridge": 3812,
      "thoroughly": 3813,
      "Liz": 3814,
      "tit": 3815,
      "task": 3816,
      "inside": 3817,
      "reward": 3818,
      "worst": 3819,
      "Anton": 3820,
      "attached": 3821,
      "connection": 3822,
      "Am": 3823,
      "Fre": 3824,
      "rea": 3825,
      "uns": 3826,
      "unexpected": 3827,
      "ables": 3828,
      "chet": 3829,
      "crimin": 3830,
      "imagined": 3831,
      "remains": 3832,
      "disappointment": 3833,
      "Dres": 3834,
      "ga": 3835,
      "retreat": 3836,
      "class": 3837,
      "approach": 3838,
      "approaching": 3839,
      "sounds": 3840,
      "gress": 3841,
      "nose": 3842,
      "forgive": 3843,
      "Italian": 3844,
      "useful": 3845,
      "reasons": 3846,
      "Dresden": 3847,
      "estate": 3848,
      "sprang": 3849,
      "shape": 3850,
      "sufficiently": 3851,
      "gest": 3852,
      "ude": 3853,
      "sav": 3854,
      "poison": 3855,
      "champ": 3856,
      "pieces": 3857,
      "indifferent": 3858,
      "exceedingly": 3859,
      "Virginia": 3860,
      "Ti": 3861,
      "tale": 3862,
      "enthus": 3863,
      "tomed": 3864,
      "shel": 3865,
      "els": 3866,
      "haste": 3867,
      "amongst": 3868,
      "clearly": 3869,
      "sour": 3870,
      "obst": 3871,
      "related": 3872,
      "eagerly": 3873,
      "splendid": 3874,
      "Isa": 3875,
      "grown": 3876,
      "ome": 3877,
      "fol": 3878,
      "folly": 3879,
      "compe": 3880,
      "continue": 3881,
      "endeavoured": 3882,
      "Thomas": 3883,
      "pulled": 3884,
      "11": 3885,
      "arose": 3886,
      "rolled": 3887,
      "utmost": 3888,
      "poet": 3889,
      "via": 3890,
      "parted": 3891,
      "kindly": 3892,
      "falling": 3893,
      "Brandon": 3894,
      "square": 3895,
      "remo": 3896,
      "asy": 3897,
      "dete": 3898,
      "acity": 3899,
      "spend": 3900,
      "choose": 3901,
      "invited": 3902,
      "affectionate": 3903,
      "dir": 3904,
      "sides": 3905,
      "hea": 3906,
      "wealth": 3907,
      "unch": 3908,
      "abo": 3909,
      "asted": 3910,
      "mark": 3911,
      "distinct": 3912,
      "admire": 3913,
      "employed": 3914,
      "names": 3915,
      "iture": 3916,
      "youre": 3917,
      "aby": 3918,
      "amid": 3919,
      "settle": 3920,
      "cheerful": 3921,
      "Has": 3922,
      "Made": 3923,
      "glow": 3924,
      "rememb": 3925,
      "jump": 3926,
      "treas": 3927,
      "depri": 3928,
      "ulars": 3929,
      "forehead": 3930,
      "istan": 3931,
      "admit": 3932,
      "persuaded": 3933,
      "wounded": 3934,
      "insp": 3935,
      "mured": 3936,
      "arranged": 3937,
      "Chi": 3938,
      "Rob": 3939,
      "Raz": 3940,
      "len": 3941,
      "uted": 3942,
      "scrup": 3943,
      "doesnt": 3944,
      "gazed": 3945,
      "Jasher": 3946,
      "bill": 3947,
      "etern": 3948,
      "asc": 3949,
      "ldom": 3950,
      "vile": 3951,
      "umi": 3952,
      "Erec": 3953,
      "infer": 3954,
      "selfish": 3955,
      "intelligence": 3956,
      "German": 3957,
      "Sup": 3958,
      "rud": 3959,
      "cere": 3960,
      "younger": 3961,
      "murmured": 3962,
      "Mean": 3963,
      "opera": 3964,
      "clouds": 3965,
      "io": 3966,
      "opp": 3967,
      "ught": 3968,
      "itions": 3969,
      "aked": 3970,
      "brief": 3971,
      "possibility": 3972,
      "patience": 3973,
      "dawn": 3974,
      "accustomed": 3975,
      "accompanied": 3976,
      "Razumi": 3977,
      "Py": 3978,
      "loves": 3979,
      "illy": 3980,
      "yellow": 3981,
      "damsel": 3982,
      "royal": 3983,
      "reproach": 3984,
      "rapidly": 3985,
      "mysterious": 3986,
      "stupid": 3987,
      "arti": 3988,
      "agitation": 3989,
      "Before": 3990,
      "Todds": 3991,
      "humour": 3992,
      "accepted": 3993,
      "Random": 3994,
      "belief": 3995,
      "gan": 3996,
      "taught": 3997,
      "sees": 3998,
      "exha": 3999,
      "innocent": 4000,
      "vous": 4001,
      "yer": 4002,
      "brown": 4003,
      "breathe": 4004,
      "continually": 4005,
      "neighbourhood": 4006,
      "teeth": 4007,
      "ctim": 4008,
      "amb": 4009,
      "failed": 4010,
      "concluded": 4011,
      "ES": 4012,
      "renew": 4013,
      "ats": 4014,
      "stretched": 4015,
      "quitted": 4016,
      "Noir": 4017,
      "wishing": 4018,
      "ridic": 4019,
      "expectation": 4020,
      "missed": 4021,
      "derer": 4022,
      "iles": 4023,
      "precious": 4024,
      "voy": 4025,
      "careful": 4026,
      "reflection": 4027,
      "gloomy": 4028,
      "provided": 4029,
      "descended": 4030,
      "Mother": 4031,
      "fled": 4032,
      "faces": 4033,
      "seldom": 4034,
      "youll": 4035,
      "vert": 4036,
      "spected": 4037,
      "immediate": 4038,
      "crit": 4039,
      "athered": 4040,
      "Carthor": 4041,
      "Raoul": 4042,
      "knife": 4043,
      "enthusias": 4044,
      "Ad": 4045,
      "Ivan": 4046,
      "ix": 4047,
      "hell": 4048,
      "begged": 4049,
      "evidence": 4050,
      "male": 4051,
      "Barney": 4052,
      "Carthoris": 4053,
      "independ": 4054,
      "resumed": 4055,
      "interval": 4056,
      "Grim": 4057,
      "dar": 4058,
      "shes": 4059,
      "ils": 4060,
      "worked": 4061,
      "retch": 4062,
      "eff": 4063,
      "slept": 4064,
      "Jon": 4065,
      "chant": 4066,
      "keeper": 4067,
      "composed": 4068,
      "Mark": 4069,
      "misfortune": 4070,
      "particulars": 4071,
      "streets": 4072,
      "10": 4073,
      "crown": 4074,
      "experienced": 4075,
      "Blunt": 4076,
      "mystery": 4077,
      "exhaust": 4078,
      "sex": 4079,
      "swear": 4080,
      "grim": 4081,
      "rupt": 4082,
      "profound": 4083,
      "whisper": 4084,
      "treated": 4085,
      "Crot": 4086,
      "TO": 4087,
      "enes": 4088,
      "bearing": 4089,
      "abandon": 4090,
      "enjoyment": 4091,
      "motions": 4092,
      "works": 4093,
      "proposed": 4094,
      "lessly": 4095,
      "strike": 4096,
      "indifference": 4097,
      "double": 4098,
      "lamp": 4099,
      "leap": 4100,
      "chang": 4101,
      "handed": 4102,
      "minds": 4103,
      "caution": 4104,
      "flesh": 4105,
      "education": 4106,
      "storm": 4107,
      "itate": 4108,
      "leis": 4109,
      "roof": 4110,
      "plans": 4111,
      "relations": 4112,
      "generous": 4113,
      "decis": 4114,
      "Baron": 4115,
      "brilli": 4116,
      "weakness": 4117,
      "beloved": 4118,
      "calcul": 4119,
      "custom": 4120,
      "frequent": 4121,
      "OF": 4122,
      "Sh": 4123,
      "crew": 4124,
      "keen": 4125,
      "sip": 4126,
      "tors": 4127,
      "igned": 4128,
      "recollection": 4129,
      "delicate": 4130,
      "Dear": 4131,
      "pill": 4132,
      "require": 4133,
      "hidden": 4134,
      "accomp": 4135,
      "goodness": 4136,
      "crying": 4137,
      "growing": 4138,
      "leaning": 4139,
      "Tristan": 4140,
      "een": 4141,
      "iner": 4142,
      "member": 4143,
      "suspected": 4144,
      "imper": 4145,
      "affections": 4146,
      "introduced": 4147,
      "Doun": 4148,
      "alarmed": 4149,
      "wept": 4150,
      "agon": 4151,
      "ruin": 4152,
      "More": 4153,
      "observation": 4154,
      "objection": 4155,
      "leisure": 4156,
      "bbed": 4157,
      "sme": 4158,
      "useless": 4159,
      "hest": 4160,
      "points": 4161,
      "prompt": 4162,
      "hastened": 4163,
      "Razumihin": 4164,
      "Crotchet": 4165,
      "advis": 4166,
      "tiv": 4167,
      "addition": 4168,
      "curtain": 4169,
      "singular": 4170,
      "considering": 4171,
      "devoted": 4172,
      "fruit": 4173,
      "Lad": 4174,
      "hit": 4175,
      "mam": 4176,
      "irr": 4177,
      "cot": 4178,
      "motive": 4179,
      "wanting": 4180,
      "formerly": 4181,
      "compliment": 4182,
      "dwell": 4183,
      "tower": 4184,
      "artic": 4185,
      "itche": 4186,
      "geon": 4187,
      "signific": 4188,
      "groan": 4189,
      "wedding": 4190,
      "Elton": 4191,
      "erick": 4192,
      "entering": 4193,
      "endure": 4194,
      "respectable": 4195,
      "declare": 4196,
      "apparently": 4197,
      "gathered": 4198,
      "pack": 4199,
      "working": 4200,
      "contented": 4201,
      "victim": 4202,
      "hence": 4203,
      "gloom": 4204,
      "furniture": 4205,
      "material": 4206,
      "gradually": 4207,
      "Str": 4208,
      "mild": 4209,
      "rele": 4210,
      "oned": 4211,
      "Chris": 4212,
      "remembrance": 4213,
      "12": 4214,
      "15": 4215,
      "Sm": 4216,
      "condem": 4217,
      "aming": 4218,
      "qual": 4219,
      "Hels": 4220,
      "fearful": 4221,
      "liter": 4222,
      "vanity": 4223,
      "Rochester": 4224,
      "cence": 4225,
      "raise": 4226,
      "disgu": 4227,
      "protest": 4228,
      "brary": 4229,
      "rug": 4230,
      "fairly": 4231,
      "admitted": 4232,
      "striking": 4233,
      "birth": 4234,
      "Bertram": 4235,
      "legs": 4236,
      "adventure": 4237,
      "lights": 4238,
      "Pray": 4239,
      "somewhere": 4240,
      "plun": 4241,
      "prince": 4242,
      "awful": 4243,
      "Gods": 4244,
      "favor": 4245,
      "movement": 4246,
      "faithful": 4247,
      "Those": 4248,
      "Having": 4249,
      "surrounded": 4250,
      "dignity": 4251,
      "named": 4252,
      "Indi": 4253,
      "correspond": 4254,
      "performance": 4255,
      "Rue": 4256,
      "bade": 4257,
      "trembled": 4258,
      "cardinal": 4259,
      "sympathy": 4260,
      "lls": 4261,
      "hip": 4262,
      "rice": 4263,
      "dislike": 4264,
      "merit": 4265,
      "sunk": 4266,
      "phys": 4267,
      "sions": 4268,
      "havent": 4269,
      "indic": 4270,
      "obsc": 4271,
      "fling": 4272,
      "Arth": 4273,
      "waters": 4274,
      "priest": 4275,
      "pains": 4276,
      "husbands": 4277,
      "heavens": 4278,
      "Grimaud": 4279,
      "13": 4280,
      "meth": 4281,
      "apped": 4282,
      "nights": 4283,
      "difficulties": 4284,
      "quisite": 4285,
      "disturb": 4286,
      "scheme": 4287,
      "conject": 4288,
      "bye": 4289,
      "directed": 4290,
      "magistr": 4291,
      "Dodd": 4292,
      "kings": 4293,
      "encour": 4294,
      "chase": 4295,
      "itty": 4296,
      "longed": 4297,
      "monstr": 4298,
      "chosen": 4299,
      "stuff": 4300,
      "suggested": 4301,
      "execution": 4302,
      "Him": 4303,
      "Sat": 4304,
      "acted": 4305,
      "becoming": 4306,
      "cies": 4307,
      "pleasures": 4308,
      "consist": 4309,
      "interview": 4310,
      "powerful": 4311,
      "efforts": 4312,
      "Ale": 4313,
      "pher": 4314,
      "beast": 4315,
      "principal": 4316,
      "original": 4317,
      "shouted": 4318,
      "Christ": 4319,
      "Mademoiselle": 4320,
      "gods": 4321,
      "rors": 4322,
      "yal": 4323,
      "receiving": 4324,
      "adop": 4325,
      "pel": 4326,
      "troubles": 4327,
      "scream": 4328,
      "finally": 4329,
      "fatal": 4330,
      "majesty": 4331,
      "nonsense": 4332,
      "infinite": 4333,
      "upper": 4334,
      "Whats": 4335,
      "examined": 4336,
      "ini": 4337,
      "dearest": 4338,
      "pear": 4339,
      "plent": 4340,
      "posal": 4341,
      "scenes": 4342,
      "oubled": 4343,
      "Middle": 4344,
      "machus": 4345,
      "hitherto": 4346,
      "Dounia": 4347,
      "Max": 4348,
      "UR": 4349,
      "lone": 4350,
      "ites": 4351,
      "star": 4352,
      "urs": 4353,
      "Andrea": 4354,
      "thrust": 4355,
      "discovery": 4356,
      "patient": 4357,
      "disturbed": 4358,
      "ggl": 4359,
      "uten": 4360,
      "permitted": 4361,
      "Cor": 4362,
      "Ut": 4363,
      "dart": 4364,
      "ians": 4365,
      "leness": 4366,
      "yon": 4367,
      "oked": 4368,
      "capital": 4369,
      "wondered": 4370,
      "buried": 4371,
      "authority": 4372,
      "struggle": 4373,
      "Ara": 4374,
      "LA": 4375,
      "kitche": 4376,
      "issu": 4377,
      "uneasy": 4378,
      "absent": 4379,
      "flew": 4380,
      "improve": 4381,
      "daily": 4382,
      "Sunday": 4383,
      "Maxim": 4384,
      "liber": 4385,
      "united": 4386,
      "surd": 4387,
      "native": 4388,
      "murderer": 4389,
      "disappointed": 4390,
      "stick": 4391,
      "tear": 4392,
      "cloak": 4393,
      "penet": 4394,
      "precise": 4395,
      "Hes": 4396,
      "Nay": 4397,
      "RO": 4398,
      "Tele": 4399,
      "fid": 4400,
      "maint": 4401,
      "pot": 4402,
      "aches": 4403,
      "assert": 4404,
      "grass": 4405,
      "waves": 4406,
      "thyself": 4407,
      "doubtless": 4408,
      "freed": 4409,
      "seriously": 4410,
      "impatience": 4411,
      "phew": 4412,
      "demanded": 4413,
      "Helsing": 4414,
      "Amb": 4415,
      "hears": 4416,
      "thunder": 4417,
      "logy": 4418,
      "nephew": 4419,
      "evol": 4420,
      "solid": 4421,
      "repeat": 4422,
      "violence": 4423,
      "knights": 4424,
      "19": 4425,
      "El": 4426,
      "bag": 4427,
      "bought": 4428,
      "lor": 4429,
      "widow": 4430,
      "domes": 4431,
      "shr": 4432,
      "readily": 4433,
      "fix": 4434,
      "ashing": 4435,
      "huge": 4436,
      "description": 4437,
      "Tom": 4438,
      "contri": 4439,
      "woke": 4440,
      "committed": 4441,
      "Bee": 4442,
      "reflected": 4443,
      "cabin": 4444,
      "Ano": 4445,
      "thine": 4446,
      "roman": 4447,
      "ghost": 4448,
      "voices": 4449,
      "risk": 4450,
      "counsel": 4451,
      "palace": 4452,
      "Zaid": 4453,
      "nel": 4454,
      "certainty": 4455,
      "signs": 4456,
      "murdered": 4457,
      "cousins": 4458,
      "Another": 4459,
      "Battle": 4460,
      "rust": 4461,
      "anno": 4462,
      "drunk": 4463,
      "elder": 4464,
      "ignorance": 4465,
      "Uncle": 4466,
      "distinguished": 4467,
      "swift": 4468,
      "parents": 4469,
      "Lizzy": 4470,
      "14": 4471,
      "Mus": 4472,
      "Par": 4473,
      "Vin": 4474,
      "sank": 4475,
      "repose": 4476,
      "stage": 4477,
      "library": 4478,
      "absurd": 4479,
      "timid": 4480,
      "quir": 4481,
      "fier": 4482,
      "special": 4483,
      "circle": 4484,
      "Edmond": 4485,
      "gaze": 4486,
      "Noirtier": 4487,
      "IS": 4488,
      "Ren": 4489,
      "dancing": 4490,
      "attered": 4491,
      "ays": 4492,
      "ulse": 4493,
      "illness": 4494,
      "pless": 4495,
      "brand": 4496,
      "cheek": 4497,
      "Arsne": 4498,
      "showing": 4499,
      "borne": 4500,
      "prepar": 4501,
      "shade": 4502,
      "described": 4503,
      "Petrovitch": 4504,
      "darling": 4505,
      "charms": 4506,
      "accompany": 4507,
      "bolt": 4508,
      "earli": 4509,
      "recover": 4510,
      "slave": 4511,
      "Vincy": 4512,
      "elo": 4513,
      "encourage": 4514,
      "foreign": 4515,
      "deserve": 4516,
      "gram": 4517,
      "shock": 4518,
      "cript": 4519,
      "gratul": 4520,
      "travell": 4521,
      "ano": 4522,
      "army": 4523,
      "disgrace": 4524,
      "minister": 4525,
      "recollect": 4526,
      "candle": 4527,
      "actions": 4528,
      "nment": 4529,
      "bel": 4530,
      "convent": 4531,
      "morti": 4532,
      "fortunately": 4533,
      "subjects": 4534,
      "setting": 4535,
      "marrying": 4536,
      "persuade": 4537,
      "delicacy": 4538,
      "Arabella": 4539,
      "Give": 4540,
      "frank": 4541,
      "mies": 4542,
      "rare": 4543,
      "forty": 4544,
      "buy": 4545,
      "probable": 4546,
      "produce": 4547,
      "building": 4548,
      "exercise": 4549,
      "Cast": 4550,
      "During": 4551,
      "Garth": 4552,
      "Rus": 4553,
      "income": 4554,
      "edge": 4555,
      "utation": 4556,
      "aker": 4557,
      "forest": 4558,
      "nervous": 4559,
      "easiness": 4560,
      "buck": 4561,
      "observing": 4562,
      "boats": 4563,
      "blessed": 4564,
      "Again": 4565,
      "gence": 4566,
      "secur": 4567,
      "ading": 4568,
      "notes": 4569,
      "disagreeable": 4570,
      "marve": 4571,
      "north": 4572,
      "built": 4573,
      "earnestly": 4574,
      "Woodhouse": 4575,
      "bottle": 4576,
      "correct": 4577,
      "flight": 4578,
      "thither": 4579,
      "congratul": 4580,
      "announced": 4581,
      "remaining": 4582,
      "soldiers": 4583,
      "16": 4584,
      "liness": 4585,
      "pan": 4586,
      "ride": 4587,
      "xand": 4588,
      "islaw": 4589,
      "sume": 4590,
      "whither": 4591,
      "contro": 4592,
      "glanced": 4593,
      "forms": 4594,
      "conclusion": 4595,
      "pictures": 4596,
      "Ladislaw": 4597,
      "Maximili": 4598,
      "Cl": 4599,
      "mess": 4600,
      "wick": 4601,
      "wet": 4602,
      "holy": 4603,
      "renz": 4604,
      "shield": 4605,
      "departed": 4606,
      "permit": 4607,
      "origin": 4608,
      "Mur": 4609,
      "Ped": 4610,
      "Vic": 4611,
      "lake": 4612,
      "stones": 4613,
      "veil": 4614,
      "Youre": 4615,
      "Archi": 4616,
      "visitor": 4617,
      "baron": 4618,
      "views": 4619,
      "oblig": 4620,
      "slightest": 4621,
      "pronounced": 4622,
      "Alexand": 4623,
      "Merc": 4624,
      "vility": 4625,
      "weary": 4626,
      "discourse": 4627,
      "project": 4628,
      "civility": 4629,
      "cases": 4630,
      "driven": 4631,
      "higher": 4632,
      "magnific": 4633,
      "domestic": 4634,
      "30": 4635,
      "ec": 4636,
      "tar": 4637,
      "vag": 4638,
      "stared": 4639,
      "sighed": 4640,
      "message": 4641,
      "ubb": 4642,
      "needed": 4643,
      "advance": 4644,
      "polite": 4645,
      "laughter": 4646,
      "tail": 4647,
      "xion": 4648,
      "chteau": 4649,
      "wasnt": 4650,
      "forbid": 4651,
      "acher": 4652,
      "progress": 4653,
      "torment": 4654,
      "duke": 4655,
      "increase": 4656,
      "mutual": 4657,
      "Telemachus": 4658,
      "Zaidie": 4659,
      "ME": 4660,
      "Whale": 4661,
      "iest": 4662,
      "valley": 4663,
      "island": 4664,
      "sear": 4665,
      "unwilling": 4666,
      "akened": 4667,
      "mbs": 4668,
      "previous": 4669,
      "energy": 4670,
      "chose": 4671,
      "strict": 4672,
      "num": 4673,
      "ows": 4674,
      "propri": 4675,
      "jected": 4676,
      "parties": 4677,
      "skin": 4678,
      "masters": 4679,
      "fifteen": 4680,
      "highest": 4681,
      "valuable": 4682,
      "consolation": 4683,
      "Meanwhile": 4684,
      "kitchen": 4685,
      "ET": 4686,
      "Wol": 4687,
      "inconveni": 4688,
      "contempt": 4689,
      "figu": 4690,
      "passions": 4691,
      "lucky": 4692,
      "Barton": 4693,
      "recommend": 4694,
      "Gre": 4695,
      "Sus": 4696,
      "hotel": 4697,
      "uneasiness": 4698,
      "terson": 4699,
      "monsieur": 4700,
      "burning": 4701,
      "desperate": 4702,
      "Smith": 4703,
      "Hy": 4704,
      "Ing": 4705,
      "Since": 4706,
      "gli": 4707,
      "tained": 4708,
      "revenge": 4709,
      "meat": 4710,
      "upstairs": 4711,
      "Any": 4712,
      "grant": 4713,
      "parting": 4714,
      "founded": 4715,
      "dressing": 4716,
      "Which": 4717,
      "amusement": 4718,
      "sensibility": 4719,
      "Ivanovna": 4720,
      "Maximilian": 4721,
      "Phi": 4722,
      "Scot": 4723,
      "cro": 4724,
      "uous": 4725,
      "alo": 4726,
      "agger": 4727,
      "ilities": 4728,
      "fortnight": 4729,
      "ission": 4730,
      "properly": 4731,
      "bourn": 4732,
      "punishment": 4733,
      "niece": 4734,
      "20": 4735,
      "bull": 4736,
      "orous": 4737,
      "itution": 4738,
      "beheld": 4739,
      "guilt": 4740,
      "glor": 4741,
      "grav": 4742,
      "Ludo": 4743,
      "singing": 4744,
      "trial": 4745,
      "bird": 4746,
      "Redgrave": 4747,
      "ras": 4748,
      "swell": 4749,
      "conci": 4750,
      "sacred": 4751,
      "unning": 4752,
      "price": 4753,
      "attentions": 4754,
      "musical": 4755,
      "intelli": 4756,
      "Middleton": 4757,
      "Sure": 4758,
      "tot": 4759,
      "unpleasant": 4760,
      "somebody": 4761,
      "sio": 4762,
      "calls": 4763,
      "awake": 4764,
      "sentence": 4765,
      "strongly": 4766,
      "Cecil": 4767,
      "anticip": 4768,
      "betrayed": 4769,
      "Longbourn": 4770,
      "magistrate": 4771,
      "Pedro": 4772,
      "Vv": 4773,
      "tis": 4774,
      "lovers": 4775,
      "repent": 4776,
      "gracious": 4777,
      "awk": 4778,
      "smallest": 4779,
      "fellows": 4780,
      "prayer": 4781,
      "sensation": 4782,
      "weeping": 4783,
      "guests": 4784,
      "frame": 4785,
      "Cater": 4786,
      "House": 4787,
      "emotions": 4788,
      "pian": 4789,
      "contained": 4790,
      "shine": 4791,
      "shalt": 4792,
      "strangers": 4793,
      "grou": 4794,
      "favourable": 4795,
      "inquiry": 4796,
      "cretion": 4797,
      "wake": 4798,
      "eding": 4799,
      "dev": 4800,
      "dozen": 4801,
      "teach": 4802,
      "vico": 4803,
      "dies": 4804,
      "eldest": 4805,
      "extent": 4806,
      "closely": 4807,
      "midnight": 4808,
      "golden": 4809,
      "leaned": 4810,
      "impatient": 4811,
      "Ludovico": 4812,
      "fant": 4813,
      "gather": 4814,
      "sand": 4815,
      "idle": 4816,
      "peas": 4817,
      "active": 4818,
      "Church": 4819,
      "needs": 4820,
      "XXX": 4821,
      "plenty": 4822,
      "Mercds": 4823,
      "Ingest": 4824,
      "Jan": 4825,
      "dine": 4826,
      "reserve": 4827,
      "shake": 4828,
      "park": 4829,
      "pointing": 4830,
      "commit": 4831,
      "stayed": 4832,
      "embr": 4833,
      "fighting": 4834,
      "instrument": 4835,
      "remarkable": 4836,
      "accomplish": 4837,
      "eating": 4838,
      "silly": 4839,
      "inward": 4840,
      "uding": 4841,
      "voc": 4842,
      "dining": 4843,
      "Minna": 4844,
      "Thorn": 4845,
      "fetch": 4846,
      "sadd": 4847,
      "nevertheless": 4848,
      "surface": 4849,
      "puzz": 4850,
      "voyage": 4851,
      "Mist": 4852,
      "Oli": 4853,
      "Tru": 4854,
      "ahead": 4855,
      "veyed": 4856,
      "alas": 4857,
      "suitors": 4858,
      "seeking": 4859,
      "Were": 4860,
      "staying": 4861,
      "soldier": 4862,
      "intimate": 4863,
      "vengeance": 4864,
      "restored": 4865,
      "excitement": 4866,
      "Utterson": 4867,
      "IX": 4868,
      "cord": 4869,
      "mate": 4870,
      "error": 4871,
      "associ": 4872,
      "cease": 4873,
      "ado": 4874,
      "alle": 4875,
      "posure": 4876,
      "procure": 4877,
      "size": 4878,
      "immen": 4879,
      "confined": 4880,
      "bury": 4881,
      "examine": 4882,
      "hole": 4883,
      "Italy": 4884,
      "scr": 4885,
      "stronger": 4886,
      "suspicions": 4887,
      "pursued": 4888,
      "picked": 4889,
      "Gardiner": 4890,
      "Elliot": 4891,
      "Av": 4892,
      "Bill": 4893,
      "Cous": 4894,
      "VI": 4895,
      "athing": 4896,
      "eque": 4897,
      "greet": 4898,
      "toms": 4899,
      "discer": 4900,
      "scri": 4901,
      "visited": 4902,
      "chiefly": 4903,
      "humble": 4904,
      "quarrel": 4905,
      "supported": 4906,
      "Queeque": 4907,
      "Manon": 4908,
      "elegant": 4909,
      "shudder": 4910,
      "Christian": 4911,
      "Middlemarch": 4912,
      "Aust": 4913,
      "Agn": 4914,
      "retire": 4915,
      "ato": 4916,
      "aspect": 4917,
      "cean": 4918,
      "agitated": 4919,
      "guide": 4920,
      "ieu": 4921,
      "opinions": 4922,
      "destro": 4923,
      "destroy": 4924,
      "duties": 4925,
      "gallant": 4926,
      "kerchief": 4927,
      "establish": 4928,
      "popular": 4929,
      "Ambro": 4930,
      "OR": 4931,
      "ky": 4932,
      "pse": 4933,
      "conqu": 4934,
      "rapt": 4935,
      "steady": 4936,
      "waist": 4937,
      "ventured": 4938,
      "fastened": 4939,
      "applied": 4940,
      "practice": 4941,
      "divided": 4942,
      "slip": 4943,
      "nurse": 4944,
      "Arthur": 4945,
      "Ingestrie": 4946,
      "Could": 4947,
      "oft": 4948,
      "viously": 4949,
      "obtained": 4950,
      "instinct": 4951,
      "enjoyed": 4952,
      "season": 4953,
      "assurance": 4954,
      "indignation": 4955,
      "title": 4956,
      "Aunt": 4957,
      "Scott": 4958,
      "farm": 4959,
      "inhabit": 4960,
      "wash": 4961,
      "cts": 4962,
      "expense": 4963,
      "enemies": 4964,
      "syste": 4965,
      "burg": 4966,
      "Lorenz": 4967,
      "harpo": 4968,
      "birds": 4969,
      "sufferings": 4970,
      "obeyed": 4971,
      "hanging": 4972,
      "Agnes": 4973,
      "Til": 4974,
      "agony": 4975,
      "managed": 4976,
      "somehow": 4977,
      "offended": 4978,
      "partly": 4979,
      "breaking": 4980,
      "exception": 4981,
      "belonged": 4982,
      "bbing": 4983,
      "major": 4984,
      "acknowledged": 4985,
      "lonely": 4986,
      "Cousin": 4987,
      "bation": 4988,
      "rul": 4989,
      "ys": 4990,
      "itz": 4991,
      "notion": 4992,
      "abroad": 4993,
      "image": 4994,
      "stock": 4995,
      "solitude": 4996,
      "Once": 4997,
      "facts": 4998,
      "created": 4999,
      "Beauchamp": 5000,
      "Antonia": 5001,
      "compelled": 5002,
      "25": 5003,
      "27": 5004,
      "Bath": 5005,
      "Fir": 5006,
      "loving": 5007,
      "felicity": 5008,
      "dol": 5009,
      "bride": 5010,
      "deny": 5011,
      "signed": 5012,
      "lux": 5013,
      "comprehend": 5014,
      "concert": 5015,
      "drank": 5016,
      "aries": 5017,
      "tied": 5018,
      "track": 5019,
      "shaking": 5020,
      "flame": 5021,
      "onds": 5022,
      "imagin": 5023,
      "describe": 5024,
      "apprehension": 5025,
      "modern": 5026,
      "savage": 5027,
      "narr": 5028,
      "remor": 5029,
      "isher": 5030,
      "cele": 5031,
      "powers": 5032,
      "contra": 5033,
      "process": 5034,
      "lawyer": 5035,
      "folded": 5036,
      "clergy": 5037,
      "sembled": 5038,
      "awakened": 5039,
      "Chur": 5040,
      "constantly": 5041,
      "supply": 5042,
      "Celia": 5043,
      "preceding": 5044,
      "source": 5045,
      "Kitty": 5046,
      "Men": 5047,
      "SE": 5048,
      "arse": 5049,
      "conceive": 5050,
      "delive": 5051,
      "abrupt": 5052,
      "moreover": 5053,
      "dict": 5054,
      "comparis": 5055,
      "confident": 5056,
      "satisfy": 5057,
      "destru": 5058,
      "utterly": 5059,
      "softly": 5060,
      "pushed": 5061,
      "univers": 5062,
      "attempted": 5063,
      "Tilney": 5064,
      "Ay": 5065,
      "Hall": 5066,
      "bul": 5067,
      "ement": 5068,
      "lid": 5069,
      "chin": 5070,
      "arson": 5071,
      "desires": 5072,
      "blu": 5073,
      "charged": 5074,
      "conducted": 5075,
      "confession": 5076,
      "Greek": 5077,
      "immense": 5078,
      "celebr": 5079,
      "rush": 5080,
      "toss": 5081,
      "moral": 5082,
      "rule": 5083,
      "Does": 5084,
      "souls": 5085,
      "sleeping": 5086,
      "centre": 5087,
      "LET": 5088,
      "Churchill": 5089,
      "Tis": 5090,
      "acles": 5091,
      "spark": 5092,
      "imprud": 5093,
      "merry": 5094,
      "izing": 5095,
      "freely": 5096,
      "reflections": 5097,
      "warmth": 5098,
      "Louis": 5099,
      "ape": 5100,
      "bree": 5101,
      "pick": 5102,
      "selle": 5103,
      "lect": 5104,
      "vex": 5105,
      "union": 5106,
      "permission": 5107,
      "troubled": 5108,
      "grin": 5109,
      "torn": 5110,
      "tted": 5111,
      "Star": 5112,
      "cries": 5113,
      "berg": 5114,
      "sofa": 5115,
      "Span": 5116,
      "troop": 5117,
      "American": 5118,
      "Mord": 5119,
      "vague": 5120,
      "enor": 5121,
      "becomes": 5122,
      "dost": 5123,
      "mankind": 5124,
      "raising": 5125,
      "contents": 5126,
      "heartily": 5127,
      "itual": 5128,
      "occasions": 5129,
      "resentment": 5130,
      "flatter": 5131,
      "descend": 5132,
      "eternal": 5133,
      "brilliant": 5134,
      "Dev": 5135,
      "Fle": 5136,
      "Wat": 5137,
      "poured": 5138,
      "rag": 5139,
      "eror": 5140,
      "comr": 5141,
      "shoot": 5142,
      "Stubb": 5143,
      "helped": 5144,
      "dram": 5145,
      "method": 5146,
      "Kings": 5147,
      "Ven": 5148,
      "baby": 5149,
      "oath": 5150,
      "enquir": 5151,
      "erson": 5152,
      "murmur": 5153,
      "frag": 5154,
      "throwing": 5155,
      "employment": 5156,
      "Castle": 5157,
      "Hay": 5158,
      "cart": 5159,
      "zi": 5160,
      "tori": 5161,
      "level": 5162,
      "advent": 5163,
      "unconscious": 5164,
      "gos": 5165,
      "owing": 5166,
      "complet": 5167,
      "Marquis": 5168,
      "misfortunes": 5169,
      "Sometimes": 5170,
      "dreams": 5171,
      "complain": 5172,
      "yards": 5173,
      "Bet": 5174,
      "mod": 5175,
      "reader": 5176,
      "attribut": 5177,
      "shortly": 5178,
      "Without": 5179,
      "anguish": 5180,
      "calmly": 5181,
      "slipped": 5182,
      "exhausted": 5183,
      "Mordaunt": 5184,
      "Hark": 5185,
      "Mati": 5186,
      "aus": 5187,
      "rt": 5188,
      "rude": 5189,
      "Chteau": 5190,
      "reality": 5191,
      "skill": 5192,
      "grounds": 5193,
      "separated": 5194,
      "knocked": 5195,
      "inquiries": 5196,
      "First": 5197,
      "Matild": 5198,
      "MS": 5199,
      "Waz": 5200,
      "rum": 5201,
      "atter": 5202,
      "sages": 5203,
      "peak": 5204,
      "accompl": 5205,
      "performed": 5206,
      "hills": 5207,
      "communication": 5208,
      "nodded": 5209,
      "Sou": 5210,
      "gue": 5211,
      "sending": 5212,
      "wels": 5213,
      "cient": 5214,
      "acting": 5215,
      "glory": 5216,
      "steal": 5217,
      "cordi": 5218,
      "womans": 5219,
      "sorts": 5220,
      "extended": 5221,
      "simplicity": 5222,
      "trusted": 5223,
      "Archie": 5224,
      "Wazir": 5225,
      "accomplished": 5226,
      "Mans": 5227,
      "cen": 5228,
      "fil": 5229,
      "vul": 5230,
      "esc": 5231,
      "exquisite": 5232,
      "print": 5233,
      "vesti": 5234,
      "flung": 5235,
      "explo": 5236,
      "corrid": 5237,
      "Mariannes": 5238,
      "probability": 5239,
      "excellency": 5240,
      "smooth": 5241,
      "politeness": 5242,
      "sensations": 5243,
      "Rod": 5244,
      "Sud": 5245,
      "equi": 5246,
      "echo": 5247,
      "umb": 5248,
      "eds": 5249,
      "itating": 5250,
      "loose": 5251,
      "coll": 5252,
      "owed": 5253,
      "prize": 5254,
      "Bartlet": 5255,
      "freedom": 5256,
      "Fort": 5257,
      "Rush": 5258,
      "cunning": 5259,
      "vation": 5260,
      "revi": 5261,
      "acknowledge": 5262,
      "whatsoever": 5263,
      "valier": 5264,
      "sounded": 5265,
      "prepare": 5266,
      "gallery": 5267,
      "smoke": 5268,
      "ceremony": 5269,
      "Astr": 5270,
      "lation": 5271,
      "ashes": 5272,
      "chan": 5273,
      "rocks": 5274,
      "ador": 5275,
      "withdrew": 5276,
      "pover": 5277,
      "manif": 5278,
      "Maria": 5279,
      "reflect": 5280,
      "mingled": 5281,
      "protection": 5282,
      "semblance": 5283,
      "relieved": 5284,
      "delivered": 5285,
      "comparison": 5286,
      "Far": 5287,
      "nation": 5288,
      "owe": 5289,
      "inous": 5290,
      "withstanding": 5291,
      "willingly": 5292,
      "shri": 5293,
      "prayers": 5294,
      "brows": 5295,
      "bones": 5296,
      "job": 5297,
      "mul": 5298,
      "youve": 5299,
      "urged": 5300,
      "text": 5301,
      "perform": 5302,
      "attitude": 5303,
      "happily": 5304,
      "joke": 5305,
      "Jove": 5306,
      "refer": 5307,
      "Thu": 5308,
      "admired": 5309,
      "queer": 5310,
      "expecting": 5311,
      "convince": 5312,
      "wisdom": 5313,
      "addressing": 5314,
      "genius": 5315,
      "Wal": 5316,
      "rings": 5317,
      "uced": 5318,
      "ino": 5319,
      "nois": 5320,
      "stars": 5321,
      "mood": 5322,
      "ams": 5323,
      "ache": 5324,
      "disput": 5325,
      "bru": 5326,
      "distra": 5327,
      "expen": 5328,
      "hesitated": 5329,
      "Letter": 5330,
      "roused": 5331,
      "article": 5332,
      "eth": 5333,
      "lished": 5334,
      "pho": 5335,
      "beard": 5336,
      "appeal": 5337,
      "believing": 5338,
      "silently": 5339,
      "avail": 5340,
      "fury": 5341,
      "social": 5342,
      "eagerness": 5343,
      "fatig": 5344,
      "About": 5345,
      "Cligs": 5346,
      "Queequeg": 5347,
      "Went": 5348,
      "god": 5349,
      "lust": 5350,
      "slo": 5351,
      "snat": 5352,
      "inner": 5353,
      "atory": 5354,
      "onef": 5355,
      "deser": 5356,
      "satisfac": 5357,
      "effects": 5358,
      "Everything": 5359,
      "deliver": 5360,
      "ivid": 5361,
      "Like": 5362,
      "Sudden": 5363,
      "Astronef": 5364,
      "Prov": 5365,
      "fed": 5366,
      "west": 5367,
      "undle": 5368,
      "petu": 5369,
      "tives": 5370,
      "ician": 5371,
      "marks": 5372,
      "store": 5373,
      "impert": 5374,
      "ladys": 5375,
      "gladly": 5376,
      "recollected": 5377,
      "bestowed": 5378,
      "Nether": 5379,
      "ridiculous": 5380,
      "escort": 5381,
      "emin": 5382,
      "mous": 5383,
      "vac": 5384,
      "anch": 5385,
      "regi": 5386,
      "rode": 5387,
      "altered": 5388,
      "resour": 5389,
      "individ": 5390,
      "turns": 5391,
      "purse": 5392,
      "arrive": 5393,
      "furnished": 5394,
      "innocence": 5395,
      "score": 5396,
      "enthusiasm": 5397,
      "Netherfield": 5398,
      "cof": 5399,
      "tum": 5400,
      "stout": 5401,
      "peep": 5402,
      "tight": 5403,
      "gown": 5404,
      "composure": 5405,
      "thence": 5406,
      "stands": 5407,
      "corpse": 5408,
      "pretend": 5409,
      "learning": 5410,
      "virtu": 5411,
      "transport": 5412,
      "details": 5413,
      "hideous": 5414,
      "dragged": 5415,
      "criminal": 5416,
      "Robert": 5417,
      "figures": 5418,
      "Temp": 5419,
      "Up": 5420,
      "cover": 5421,
      "insisted": 5422,
      "occasionally": 5423,
      "safely": 5424,
      "political": 5425,
      "abode": 5426,
      "Kater": 5427,
      "RE": 5428,
      "thed": 5429,
      "lessness": 5430,
      "Madam": 5431,
      "assumed": 5432,
      "complaint": 5433,
      "divine": 5434,
      "farewell": 5435,
      "tranquill": 5436,
      "Wolmar": 5437,
      "Suddenly": 5438,
      "Katerina": 5439,
      "Ali": 5440,
      "Jeff": 5441,
      "Mina": 5442,
      "Tur": 5443,
      "rated": 5444,
      "wilt": 5445,
      "sus": 5446,
      "expres": 5447,
      "proportion": 5448,
      "bling": 5449,
      "smart": 5450,
      "horiz": 5451,
      "distin": 5452,
      "solitary": 5453,
      "trace": 5454,
      "wondering": 5455,
      "crack": 5456,
      "deliber": 5457,
      "travelling": 5458,
      "Presently": 5459,
      "deprived": 5460,
      "destroyed": 5461,
      "Ke": 5462,
      "bone": 5463,
      "tick": 5464,
      "umn": 5465,
      "silk": 5466,
      "learnt": 5467,
      "000": 5468,
      "prudent": 5469,
      "exclam": 5470,
      "Aug": 5471,
      "Park": 5472,
      "eve": 5473,
      "itiz": 5474,
      "accur": 5475,
      "exhi": 5476,
      "bray": 5477,
      "suspicious": 5478,
      "benevol": 5479,
      "maamselle": 5480,
      "Fern": 5481,
      "inferior": 5482,
      "remorse": 5483,
      "Wh": 5484,
      "pies": 5485,
      "ascertain": 5486,
      "hollow": 5487,
      "ulated": 5488,
      "offici": 5489,
      "gible": 5490,
      "approbation": 5491,
      "remarks": 5492,
      "drinking": 5493,
      "frightful": 5494,
      "pursuit": 5495,
      "principle": 5496,
      "sacrific": 5497,
      "sincerely": 5498,
      "pistol": 5499,
      "28": 5500,
      "Svid": 5501,
      "gun": 5502,
      "wretch": 5503,
      "secured": 5504,
      "stam": 5505,
      "alov": 5506,
      "conj": 5507,
      "unted": 5508,
      "unusual": 5509,
      "anywhere": 5510,
      "obedi": 5511,
      "visits": 5512,
      "visitors": 5513,
      "steel": 5514,
      "tones": 5515,
      "incred": 5516,
      "warning": 5517,
      "preparing": 5518,
      "guards": 5519,
      "slightly": 5520,
      "craft": 5521,
      "rigalov": 5522,
      "coffee": 5523,
      "Svidrigalov": 5524,
      "List": 5525,
      "ST": 5526,
      "nay": 5527,
      "pul": 5528,
      "paint": 5529,
      "tomb": 5530,
      "likes": 5531,
      "losing": 5532,
      "unjust": 5533,
      "marble": 5534,
      "gray": 5535,
      "insist": 5536,
      "incident": 5537,
      "climb": 5538,
      "amazement": 5539,
      "Farebrother": 5540,
      "heavi": 5541,
      "magnificent": 5542,
      "Both": 5543,
      "athan": 5544,
      "heed": 5545,
      "mode": 5546,
      "respon": 5547,
      "contribut": 5548,
      "woe": 5549,
      "deserved": 5550,
      "impulse": 5551,
      "Lucas": 5552,
      "Allen": 5553,
      "coloured": 5554,
      "contradi": 5555,
      "grove": 5556,
      "publ": 5557,
      "increasing": 5558,
      "intentions": 5559,
      "deserted": 5560,
      "Lorenzo": 5561,
      "destruction": 5562,
      "August": 5563,
      "29": 5564,
      "mile": 5565,
      "heat": 5566,
      "recalled": 5567,
      "rob": 5568,
      "compared": 5569,
      "grasp": 5570,
      "older": 5571,
      "meanwhile": 5572,
      "swept": 5573,
      "pier": 5574,
      "mourn": 5575,
      "treasure": 5576,
      "yonder": 5577,
      "Surely": 5578,
      "poverty": 5579,
      "Many": 5580,
      "base": 5581,
      "uck": 5582,
      "ana": 5583,
      "ators": 5584,
      "string": 5585,
      "gets": 5586,
      "untarily": 5587,
      "finish": 5588,
      "Debray": 5589,
      "flower": 5590,
      "ification": 5591,
      "vailed": 5592,
      "separate": 5593,
      "inspired": 5594,
      "totally": 5595,
      "Egy": 5596,
      "Gent": 5597,
      "flying": 5598,
      "oil": 5599,
      "page": 5600,
      "invent": 5601,
      "eral": 5602,
      "sump": 5603,
      "tien": 5604,
      "manu": 5605,
      "handkerchief": 5606,
      "prevailed": 5607,
      "blaz": 5608,
      "Ros": 5609,
      "resolute": 5610,
      "Really": 5611,
      "Porfir": 5612,
      "gravely": 5613,
      "appointed": 5614,
      "blows": 5615,
      "intelle": 5616,
      "rejoiced": 5617,
      "induced": 5618,
      "grieved": 5619,
      "audience": 5620,
      "Ambrosio": 5621,
      "Fleet": 5622,
      "White": 5623,
      "Ac": 5624,
      "tend": 5625,
      "edition": 5626,
      "female": 5627,
      "perceiving": 5628,
      "oking": 5629,
      "thanked": 5630,
      "strain": 5631,
      "intense": 5632,
      "reputation": 5633,
      "tells": 5634,
      "confused": 5635,
      "fourth": 5636,
      "seeming": 5637,
      "borrow": 5638,
      "prisoners": 5639,
      "consequences": 5640,
      "Blanche": 5641,
      "recognised": 5642,
      "corridor": 5643,
      "Non": 5644,
      "Night": 5645,
      "aper": 5646,
      "frown": 5647,
      "hid": 5648,
      "nearest": 5649,
      "spared": 5650,
      "everyone": 5651,
      "stoop": 5652,
      "smiles": 5653,
      "sweetness": 5654,
      "successful": 5655,
      "Frederick": 5656,
      "habits": 5657,
      "Quite": 5658,
      "Palmer": 5659,
      "established": 5660,
      "Jonathan": 5661,
      "decision": 5662,
      "security": 5663,
      "ocean": 5664,
      "swords": 5665,
      "heap": 5666,
      "meal": 5667,
      "nob": 5668,
      "waste": 5669,
      "forgiven": 5670,
      "weap": 5671,
      "alled": 5672,
      "deceive": 5673,
      "unnecessary": 5674,
      "manus": 5675,
      "sire": 5676,
      "distressed": 5677,
      "supposing": 5678,
      "uttering": 5679,
      "blessing": 5680,
      "Henri": 5681,
      "Duke": 5682,
      "summoned": 5683,
      "bodies": 5684,
      "awkward": 5685,
      "Fernand": 5686,
      "26": 5687,
      "Sire": 5688,
      "ean": 5689,
      "ume": 5690,
      "uncertain": 5691,
      "acket": 5692,
      "mental": 5693,
      "diam": 5694,
      "cleared": 5695,
      "struggl": 5696,
      "characters": 5697,
      "touching": 5698,
      "knee": 5699,
      "recognized": 5700,
      "defend": 5701,
      "mixed": 5702,
      "moonlight": 5703,
      "induce": 5704,
      "Isabella": 5705,
      "dirty": 5706,
      "eloqu": 5707,
      "Caterham": 5708,
      "Jack": 5709,
      "Ten": 5710,
      "XL": 5711,
      "sey": 5712,
      "althy": 5713,
      "unts": 5714,
      "usal": 5715,
      "whats": 5716,
      "sphere": 5717,
      "presents": 5718,
      "signal": 5719,
      "larger": 5720,
      "labour": 5721,
      "Europe": 5722,
      "romantic": 5723,
      "vy": 5724,
      "remove": 5725,
      "llo": 5726,
      "straw": 5727,
      "inev": 5728,
      "dice": 5729,
      "firmed": 5730,
      "newsp": 5731,
      "commonly": 5732,
      "accent": 5733,
      "advise": 5734,
      "Lucys": 5735,
      "examination": 5736,
      "record": 5737,
      "treatment": 5738,
      "devotion": 5739,
      "guessed": 5740,
      "preferred": 5741,
      "arrangement": 5742,
      "argument": 5743,
      "ceptible": 5744,
      "control": 5745,
      "manuscript": 5746,
      "youd": 5747,
      "develo": 5748,
      "dogs": 5749,
      "opposition": 5750,
      "compar": 5751,
      "spector": 5752,
      "lication": 5753,
      "dreaded": 5754,
      "complexion": 5755,
      "contrast": 5756,
      "vanished": 5757,
      "guarded": 5758,
      "rational": 5759,
      "Hyde": 5760,
      "23": 5761,
      "40": 5762,
      "Bol": 5763,
      "Sch": 5764,
      "dain": 5765,
      "uce": 5766,
      "orche": 5767,
      "stained": 5768,
      "verted": 5769,
      "abled": 5770,
      "aff": 5771,
      "everywhere": 5772,
      "hearted": 5773,
      "nerves": 5774,
      "refresh": 5775,
      "anxiously": 5776,
      "intimacy": 5777,
      "renewed": 5778,
      "Sep": 5779,
      "bewild": 5780,
      "limbs": 5781,
      "whel": 5782,
      "owner": 5783,
      "offence": 5784,
      "attending": 5785,
      "angel": 5786,
      "natured": 5787,
      "quires": 5788,
      "approve": 5789,
      "fields": 5790,
      "zeal": 5791,
      "prudence": 5792,
      "gift": 5793,
      "numerous": 5794,
      "vulgar": 5795,
      "impertin": 5796,
      "DE": 5797,
      "Pri": 5798,
      "jam": 5799,
      "kn": 5800,
      "nut": 5801,
      "outer": 5802,
      "arrest": 5803,
      "lime": 5804,
      "tele": 5805,
      "discretion": 5806,
      "propose": 5807,
      "feels": 5808,
      "elsewhere": 5809,
      "paying": 5810,
      "lantern": 5811,
      "benefit": 5812,
      "religion": 5813,
      "jumped": 5814,
      "satisfactory": 5815,
      "CE": 5816,
      "Mac": 5817,
      "pens": 5818,
      "rene": 5819,
      "ese": 5820,
      "boots": 5821,
      "poses": 5822,
      "accordingly": 5823,
      "genu": 5824,
      "affliction": 5825,
      "Beebe": 5826,
      "Mer": 5827,
      "VII": 5828,
      "east": 5829,
      "ws": 5830,
      "recall": 5831,
      "reaching": 5832,
      "inging": 5833,
      "neat": 5834,
      "perple": 5835,
      "blush": 5836,
      "preserved": 5837,
      "tingu": 5838,
      "openly": 5839,
      "humanity": 5840,
      "warmly": 5841,
      "porter": 5842,
      "distinctly": 5843,
      "precisely": 5844,
      "fierce": 5845,
      "Dun": 5846,
      "Jek": 5847,
      "Wil": 5848,
      "san": 5849,
      "asing": 5850,
      "astic": 5851,
      "organ": 5852,
      "arrested": 5853,
      "bead": 5854,
      "lip": 5855,
      "fection": 5856,
      "absor": 5857,
      "hated": 5858,
      "ulation": 5859,
      "ested": 5860,
      "sian": 5861,
      "minded": 5862,
      "services": 5863,
      "south": 5864,
      "separation": 5865,
      "injured": 5866,
      "philosophy": 5867,
      "brandy": 5868,
      "Matilda": 5869,
      "Porfiry": 5870,
      "Jeky": 5871,
      "Hart": 5872,
      "ba": 5873,
      "ole": 5874,
      "tore": 5875,
      "ingen": 5876,
      "tip": 5877,
      "extingu": 5878,
      "rail": 5879,
      "serge": 5880,
      "follows": 5881,
      "mischief": 5882,
      "laying": 5883,
      "occasioned": 5884,
      "bitterly": 5885,
      "Caval": 5886,
      "desirable": 5887,
      "Bartlett": 5888,
      "intellect": 5889,
      "CA": 5890,
      "Cf": 5891,
      "chim": 5892,
      "cared": 5893,
      "lap": 5894,
      "estim": 5895,
      "suited": 5896,
      "Heli": 5897,
      "placing": 5898,
      "angle": 5899,
      "commission": 5900,
      "Think": 5901,
      "inquire": 5902,
      "politics": 5903,
      "shuddered": 5904,
      "Mansfield": 5905,
      "Wentworth": 5906,
      "Sult": 5907,
      "rely": 5908,
      "usions": 5909,
      "icing": 5910,
      "faults": 5911,
      "impressed": 5912,
      "relate": 5913,
      "continual": 5914,
      "appearing": 5915,
      "sorrows": 5916,
      "ugly": 5917,
      "governor": 5918,
      "represented": 5919,
      "restore": 5920,
      "Friend": 5921,
      "wrapped": 5922,
      "tremble": 5923,
      "group": 5924,
      "Dam": 5925,
      "Great": 5926,
      "Gener": 5927,
      "pine": 5928,
      "sket": 5929,
      "motives": 5930,
      "hatred": 5931,
      "apa": 5932,
      "plate": 5933,
      "assass": 5934,
      "visions": 5935,
      "helpless": 5936,
      "regarding": 5937,
      "violently": 5938,
      "maids": 5939,
      "softened": 5940,
      "True": 5941,
      "clerk": 5942,
      "queton": 5943,
      "fatigue": 5944,
      "Aye": 5945,
      "Gover": 5946,
      "Sher": 5947,
      "aim": 5948,
      "don": 5949,
      "pace": 5950,
      "sper": 5951,
      "zig": 5952,
      "residence": 5953,
      "reserved": 5954,
      "wheel": 5955,
      "arts": 5956,
      "prev": 5957,
      "mates": 5958,
      "horrid": 5959,
      "trifling": 5960,
      "madness": 5961,
      "riding": 5962,
      "startled": 5963,
      "bows": 5964,
      "commanded": 5965,
      "pursue": 5966,
      "superst": 5967,
      "knock": 5968,
      "feeble": 5969,
      "substance": 5970,
      "hospit": 5971,
      "neglect": 5972,
      "clergyman": 5973,
      "tranquillity": 5974,
      "AT": 5975,
      "Gra": 5976,
      "fying": 5977,
      "oted": 5978,
      "rs": 5979,
      "wave": 5980,
      "hop": 5981,
      "stole": 5982,
      "scorn": 5983,
      "headed": 5984,
      "Soon": 5985,
      "interests": 5986,
      "judged": 5987,
      "resolve": 5988,
      "Norris": 5989,
      "principles": 5990,
      "impatiently": 5991,
      "lodging": 5992,
      "Planche": 5993,
      "Maj": 5994,
      "calculated": 5995,
      "Helium": 5996,
      "Hill": 5997,
      "Lance": 5998,
      "pour": 5999,
      "rant": 6000,
      "ids": 6001,
      "hoping": 6002,
      "amused": 6003,
      "commod": 6004,
      "boast": 6005,
      "anches": 6006,
      "check": 6007,
      "talent": 6008,
      "steep": 6009,
      "cares": 6010,
      "trick": 6011,
      "Elinors": 6012,
      "skir": 6013,
      "phan": 6014,
      "extravag": 6015,
      "claims": 6016,
      "patron": 6017,
      "twilight": 6018,
      "attracted": 6019,
      "entertained": 6020,
      "AND": 6021,
      "tolerably": 6022,
      "smell": 6023,
      "Mistress": 6024,
      "Rushworth": 6025,
      "Out": 6026,
      "lun": 6027,
      "uct": 6028,
      "inated": 6029,
      "sters": 6030,
      "conveyed": 6031,
      "Therefore": 6032,
      "shocked": 6033,
      "announce": 6034,
      "speaks": 6035,
      "doubts": 6036,
      "cerity": 6037,
      "quarters": 6038,
      "variety": 6039,
      "hungry": 6040,
      "distinction": 6041,
      "genuine": 6042,
      "Bor": 6043,
      "Court": 6044,
      "Ise": 6045,
      "coff": 6046,
      "faced": 6047,
      "fitted": 6048,
      "ya": 6049,
      "assemb": 6050,
      "confirm": 6051,
      "cio": 6052,
      "diff": 6053,
      "decide": 6054,
      "Remember": 6055,
      "virtuous": 6056,
      "inald": 6057,
      "maiden": 6058,
      "wandered": 6059,
      "Gas": 6060,
      "Say": 6061,
      "eh": 6062,
      "lack": 6063,
      "pup": 6064,
      "reception": 6065,
      "resemblance": 6066,
      "abund": 6067,
      "essie": 6068,
      "shone": 6069,
      "lted": 6070,
      "happier": 6071,
      "checked": 6072,
      "landing": 6073,
      "subs": 6074,
      "honoured": 6075,
      "purple": 6076,
      "eleven": 6077,
      "portra": 6078,
      "animated": 6079,
      "exertion": 6080,
      "Oliver": 6081,
      "Listen": 6082,
      "Old": 6083,
      "nas": 6084,
      "rout": 6085,
      "conceived": 6086,
      "deeper": 6087,
      "sable": 6088,
      "unworthy": 6089,
      "sheet": 6090,
      "acquired": 6091,
      "lightning": 6092,
      "painted": 6093,
      "sunset": 6094,
      "Brit": 6095,
      "gazing": 6096,
      "rejoice": 6097,
      "restraint": 6098,
      "folks": 6099,
      "propriety": 6100,
      "virtues": 6101,
      "24": 6102,
      "Ni": 6103,
      "creet": 6104,
      "pang": 6105,
      "vern": 6106,
      "constru": 6107,
      "coast": 6108,
      "quality": 6109,
      "longing": 6110,
      "scape": 6111,
      "submit": 6112,
      "adding": 6113,
      "privile": 6114,
      "travel": 6115,
      "cliff": 6116,
      "government": 6117,
      "distinguish": 6118,
      "regiment": 6119,
      "OO": 6120,
      "Yvain": 6121,
      "crep": 6122,
      "jaw": 6123,
      "lam": 6124,
      "ox": 6125,
      "coward": 6126,
      "nets": 6127,
      "proposal": 6128,
      "overwhel": 6129,
      "fici": 6130,
      "Emilys": 6131,
      "cutting": 6132,
      "driving": 6133,
      "fasc": 6134,
      "sailor": 6135,
      "introduction": 6136,
      "labor": 6137,
      "revealed": 6138,
      "doubtedly": 6139,
      "stiff": 6140,
      "shelter": 6141,
      "obstin": 6142,
      "Providence": 6143,
      "Planchet": 6144,
      "Med": 6145,
      "Ver": 6146,
      "Wa": 6147,
      "tune": 6148,
      "decor": 6149,
      "accommod": 6150,
      "commen": 6151,
      "stopping": 6152,
      "enger": 6153,
      "version": 6154,
      "Three": 6155,
      "hesitation": 6156,
      "syll": 6157,
      "honourable": 6158,
      "Most": 6159,
      "persuas": 6160,
      "sailors": 6161,
      "funeral": 6162,
      "protect": 6163,
      "wandering": 6164,
      "indulgence": 6165,
      "alike": 6166,
      "threatened": 6167,
      "system": 6168,
      "Starbuck": 6169,
      "Gentle": 6170,
      "Ple": 6171,
      "Pequ": 6172,
      "ib": 6173,
      "kin": 6174,
      "chol": 6175,
      "comed": 6176,
      "replies": 6177,
      "wherein": 6178,
      "closing": 6179,
      "guine": 6180,
      "throughout": 6181,
      "trifle": 6182,
      "military": 6183,
      "Something": 6184,
      "Dashwoods": 6185,
      "uniform": 6186,
      "defence": 6187,
      "Hence": 6188,
      "Kate": 6189,
      "Mous": 6190,
      "vest": 6191,
      "staring": 6192,
      "uncomfortable": 6193,
      "worry": 6194,
      "blem": 6195,
      "monster": 6196,
      "easier": 6197,
      "reluct": 6198,
      "intercourse": 6199,
      "Hervey": 6200,
      "directions": 6201,
      "collected": 6202,
      "families": 6203,
      "changing": 6204,
      "condemned": 6205,
      "arsonage": 6206,
      "Hann": 6207,
      "Port": 6208,
      "Stop": 6209,
      "barri": 6210,
      "oer": 6211,
      "roll": 6212,
      "notwithstanding": 6213,
      "resign": 6214,
      "peril": 6215,
      "jewels": 6216,
      "housekeeper": 6217,
      "cloth": 6218,
      "chain": 6219,
      "talents": 6220,
      "corrup": 6221,
      "emperor": 6222,
      "pipe": 6223,
      "strangely": 6224,
      "motionless": 6225,
      "introduce": 6226,
      "Nevertheless": 6227,
      "independent": 6228,
      "qualities": 6229,
      "Christmas": 6230,
      "earlier": 6231,
      "Jeffery": 6232,
      "crept": 6233,
      "Cale": 6234,
      "East": 6235,
      "Ragg": 6236,
      "VIII": 6237,
      "ois": 6238,
      "sober": 6239,
      "thern": 6240,
      "mud": 6241,
      "fortitude": 6242,
      "joining": 6243,
      "sublime": 6244,
      "bedroom": 6245,
      "crimes": 6246,
      "advancing": 6247,
      "expressions": 6248,
      "profit": 6249,
      "determine": 6250,
      "proceeding": 6251,
      "athed": 6252,
      "animal": 6253,
      "positively": 6254,
      "rays": 6255,
      "gesture": 6256,
      "intervals": 6257,
      "abandoned": 6258,
      "Watson": 6259,
      "horizon": 6260,
      "Lancelot": 6261,
      "Each": 6262,
      "RI": 6263,
      "fain": 6264,
      "lace": 6265,
      "otr": 6266,
      "ral": 6267,
      "roar": 6268,
      "terrace": 6269,
      "medical": 6270,
      "desk": 6271,
      "stories": 6272,
      "wherever": 6273,
      "preserve": 6274,
      "carri": 6275,
      "attentive": 6276,
      "laws": 6277,
      "slu": 6278,
      "grees": 6279,
      "villain": 6280,
      "belonging": 6281,
      "sincerity": 6282,
      "compliments": 6283,
      "swim": 6284,
      "positive": 6285,
      "endeavouring": 6286,
      "Sherlock": 6287,
      "Mousqueton": 6288,
      "Mic": 6289,
      "Winter": 6290,
      "snu": 6291,
      "uge": 6292,
      "ville": 6293,
      "hem": 6294,
      "peo": 6295,
      "prosper": 6296,
      "waved": 6297,
      "breathing": 6298,
      "embrace": 6299,
      "determination": 6300,
      "Leip": 6301,
      "confessed": 6302,
      "neighbor": 6303,
      "firmly": 6304,
      "travelled": 6305,
      "elegance": 6306,
      "jealousy": 6307,
      "Pyotr": 6308,
      "plunged": 6309,
      "Susan": 6310,
      "Leipzig": 6311,
      "AL": 6312,
      "Bull": 6313,
      "Din": 6314,
      "aves": 6315,
      "arise": 6316,
      "converse": 6317,
      "degrees": 6318,
      "sheep": 6319,
      "display": 6320,
      "mens": 6321,
      "offering": 6322,
      "Whatever": 6323,
      "household": 6324,
      "Stir": 6325,
      "ggs": 6326,
      "starting": 6327,
      "Louisa": 6328,
      "folk": 6329,
      "breeze": 6330,
      "Mal": 6331,
      "Mery": 6332,
      "bust": 6333,
      "lion": 6334,
      "paces": 6335,
      "lla": 6336,
      "someone": 6337,
      "displayed": 6338,
      "canti": 6339,
      "ully": 6340,
      "scand": 6341,
      "scattered": 6342,
      "happens": 6343,
      "tically": 6344,
      "final": 6345,
      "doubtful": 6346,
      "examining": 6347,
      "consequently": 6348,
      "occupation": 6349,
      "belongs": 6350,
      "neglected": 6351,
      "embarrassment": 6352,
      "disguise": 6353,
      "Scotland": 6354,
      "Spanish": 6355,
      "heavily": 6356,
      "Meryton": 6357,
      "Hor": 6358,
      "ware": 6359,
      "assembled": 6360,
      "ader": 6361,
      "confirmed": 6362,
      "uncles": 6363,
      "mov": 6364,
      "exposed": 6365,
      "partner": 6366,
      "begins": 6367,
      "flash": 6368,
      "ruined": 6369,
      "Grant": 6370,
      "yielded": 6371,
      "copy": 6372,
      "religious": 6373,
      "Di": 6374,
      "groom": 6375,
      "nic": 6376,
      "xim": 6377,
      "sailed": 6378,
      "cken": 6379,
      "lesson": 6380,
      "presume": 6381,
      "umes": 6382,
      "psy": 6383,
      "refuge": 6384,
      "gging": 6385,
      "respects": 6386,
      "hasty": 6387,
      "constitution": 6388,
      "burnt": 6389,
      "bitterness": 6390,
      "rejoined": 6391,
      "afforded": 6392,
      "affecting": 6393,
      "solicitude": 6394,
      "leaped": 6395,
      "Should": 6396,
      "Moreover": 6397,
      "advised": 6398,
      "celebrated": 6399,
      "enormous": 6400,
      "adventures": 6401,
      "Temple": 6402,
      "50": 6403,
      "Speak": 6404,
      "Tow": 6405,
      "omed": 6406,
      "rit": 6407,
      "ishes": 6408,
      "hams": 6409,
      "suitable": 6410,
      "chapel": 6411,
      "tempor": 6412,
      "generosity": 6413,
      "crowded": 6414,
      "sharply": 6415,
      "desirous": 6416,
      "America": 6417,
      "utenant": 6418,
      "Cavalcanti": 6419,
      "Gascon": 6420,
      "Bert": 6421,
      "Greg": 6422,
      "Honey": 6423,
      "bis": 6424,
      "mast": 6425,
      "thri": 6426,
      "enable": 6427,
      "urity": 6428,
      "tem": 6429,
      "counts": 6430,
      "denied": 6431,
      "drown": 6432,
      "suming": 6433,
      "behaved": 6434,
      "testi": 6435,
      "encouraged": 6436,
      "tumult": 6437,
      "Hannah": 6438,
      "Gen": 6439,
      "Mil": 6440,
      "Ser": 6441,
      "US": 6442,
      "fford": 6443,
      "mson": 6444,
      "sly": 6445,
      "incapable": 6446,
      "beating": 6447,
      "chat": 6448,
      "shrie": 6449,
      "branches": 6450,
      "tempted": 6451,
      "hopeless": 6452,
      "meantime": 6453,
      "Comp": 6454,
      "elev": 6455,
      "rung": 6456,
      "harsh": 6457,
      "supplied": 6458,
      "decidedly": 6459,
      "facul": 6460,
      "pressing": 6461,
      "bestow": 6462,
      "embarrassed": 6463,
      "reminded": 6464,
      "ROME": 6465,
      "puzzled": 6466,
      "ROMEO": 6467,
      "Hon": 6468,
      "Nob": 6469,
      "warri": 6470,
      "ante": 6471,
      "enabled": 6472,
      "perpetu": 6473,
      "graph": 6474,
      "color": 6475,
      "conductor": 6476,
      "avoided": 6477,
      "tolerable": 6478,
      "travellers": 6479,
      "inhabitants": 6480,
      "General": 6481,
      "Cher": 6482,
      "dun": 6483,
      "vet": 6484,
      "lored": 6485,
      "courte": 6486,
      "counted": 6487,
      "bloom": 6488,
      "respecting": 6489,
      "scarce": 6490,
      "modesty": 6491,
      "emerald": 6492,
      "rugged": 6493,
      "pearls": 6494,
      "darted": 6495,
      "Bolton": 6496,
      "Sultan": 6497,
      "Bertuc": 6498,
      "Hold": 6499,
      "citiz": 6500,
      "date": 6501,
      "foul": 6502,
      "oars": 6503,
      "insensible": 6504,
      "envelo": 6505,
      "unlike": 6506,
      "domin": 6507,
      "whir": 6508,
      "quitting": 6509,
      "torted": 6510,
      "milk": 6511,
      "Norland": 6512,
      "Under": 6513,
      "calmness": 6514,
      "apprehensions": 6515,
      "restrained": 6516,
      "encouragement": 6517,
      "inconvenience": 6518,
      "troops": 6519,
      "Jekyll": 6520,
      "Fr": 6521,
      "Ja": 6522,
      "Other": 6523,
      "recei": 6524,
      "thi": 6525,
      "ulate": 6526,
      "gny": 6527,
      "justify": 6528,
      "career": 6529,
      "wooden": 6530,
      "griev": 6531,
      "temptation": 6532,
      "Bingleys": 6533,
      "witnessed": 6534,
      "consented": 6535,
      "coachman": 6536,
      "judice": 6537,
      "bable": 6538,
      "batt": 6539,
      "mult": 6540,
      "nin": 6541,
      "papa": 6542,
      "leve": 6543,
      "displeased": 6544,
      "didst": 6545,
      "jection": 6546,
      "justified": 6547,
      "lasting": 6548,
      "rightly": 6549,
      "writer": 6550,
      "mberley": 6551,
      "conditions": 6552,
      "apply": 6553,
      "secretly": 6554,
      "driver": 6555,
      "studied": 6556,
      "glasses": 6557,
      "apartments": 6558,
      "Pemberley": 6559,
      "Englishman": 6560,
      "Georgi": 6561,
      "lodg": 6562,
      "Julia": 6563,
      "recommended": 6564,
      "millions": 6565,
      "South": 6566,
      "daring": 6567,
      "jail": 6568,
      "othing": 6569,
      "inher": 6570,
      "itations": 6571,
      "hael": 6572,
      "soothe": 6573,
      "alls": 6574,
      "brings": 6575,
      "downstairs": 6576,
      "relative": 6577,
      "pretended": 6578,
      "sunshine": 6579,
      "badly": 6580,
      "sively": 6581,
      "terrified": 6582,
      "advantages": 6583,
      "detail": 6584,
      "improved": 6585,
      "alteration": 6586,
      "Feather": 6587,
      "intendent": 6588,
      "mamma": 6589,
      "Russell": 6590,
      "glorious": 6591,
      "piano": 6592,
      "sergeant": 6593,
      "prevail": 6594,
      "Nobody": 6595,
      "Bertuccio": 6596,
      "Bour": 6597,
      "Hur": 6598,
      "None": 6599,
      "Neither": 6600,
      "lou": 6601,
      "tide": 6602,
      "recent": 6603,
      "members": 6604,
      "convey": 6605,
      "wol": 6606,
      "shaw": 6607,
      "strained": 6608,
      "dig": 6609,
      "udge": 6610,
      "subdu": 6611,
      "remembering": 6612,
      "debt": 6613,
      "arrangements": 6614,
      "Clifford": 6615,
      "revived": 6616,
      "Hartfield": 6617,
      "Iseult": 6618,
      "Caleb": 6619,
      "Hush": 6620,
      "Scar": 6621,
      "Sister": 6622,
      "bred": 6623,
      "wounds": 6624,
      "insol": 6625,
      "inations": 6626,
      "rever": 6627,
      "ayed": 6628,
      "achi": 6629,
      "outward": 6630,
      "raz": 6631,
      "ica": 6632,
      "opposed": 6633,
      "inking": 6634,
      "shouldnt": 6635,
      "lightly": 6636,
      "whereas": 6637,
      "monds": 6638,
      "chal": 6639,
      "rison": 6640,
      "comfortably": 6641,
      "concerns": 6642,
      "destined": 6643,
      "spectacle": 6644,
      "XXXV": 6645,
      "winds": 6646,
      "Converse": 6647,
      "practical": 6648,
      "management": 6649,
      "marvell": 6650,
      "saddle": 6651,
      "Thuvia": 6652,
      "Honeychurch": 6653,
      "Youn": 6654,
      "lof": 6655,
      "tons": 6656,
      "vive": 6657,
      "wre": 6658,
      "ensu": 6659,
      "stag": 6660,
      "ads": 6661,
      "notions": 6662,
      "lov": 6663,
      "exten": 6664,
      "shru": 6665,
      "prophe": 6666,
      "trade": 6667,
      "daylight": 6668,
      "handle": 6669,
      "reads": 6670,
      "preser": 6671,
      "Through": 6672,
      "accused": 6673,
      "warn": 6674,
      "depends": 6675,
      "errand": 6676,
      "cards": 6677,
      "neighbours": 6678,
      "poetry": 6679,
      "gravity": 6680,
      "establishment": 6681,
      "commenced": 6682,
      "Hast": 6683,
      "asks": 6684,
      "definite": 6685,
      "reshold": 6686,
      "clasped": 6687,
      "ountain": 6688,
      "prey": 6689,
      "beings": 6690,
      "untary": 6691,
      "elect": 6692,
      "earthly": 6693,
      "Lowick": 6694,
      "arguments": 6695,
      "Freake": 6696,
      "glimp": 6697,
      "blushed": 6698,
      "individual": 6699,
      "orchestra": 6700,
      "Fitz": 6701,
      "Gaw": 6702,
      "Sax": 6703,
      "bac": 6704,
      "rase": 6705,
      "mechan": 6706,
      "pool": 6707,
      "ouncing": 6708,
      "ifying": 6709,
      "illes": 6710,
      "risen": 6711,
      "drops": 6712,
      "secrets": 6713,
      "passages": 6714,
      "courtes": 6715,
      "restrain": 6716,
      "Among": 6717,
      "Super": 6718,
      "obligation": 6719,
      "Henriet": 6720,
      "Cam": 6721,
      "Pre": 6722,
      "Ye": 6723,
      "awe": 6724,
      "awoke": 6725,
      "mers": 6726,
      "warr": 6727,
      "threshold": 6728,
      "ential": 6729,
      "iring": 6730,
      "ria": 6731,
      "feast": 6732,
      "poe": 6733,
      "letting": 6734,
      "doorway": 6735,
      "forming": 6736,
      "secre": 6737,
      "icians": 6738,
      "footsteps": 6739,
      "keys": 6740,
      "punct": 6741,
      "Miner": 6742,
      "Romeo": 6743,
      "reckon": 6744,
      "abruptly": 6745,
      "Bad": 6746,
      "Des": 6747,
      "Four": 6748,
      "Get": 6749,
      "Vill": 6750,
      "ailed": 6751,
      "ives": 6752,
      "itute": 6753,
      "beer": 6754,
      "vexed": 6755,
      "term": 6756,
      "abilities": 6757,
      "affles": 6758,
      "assent": 6759,
      "Youll": 6760,
      "precaution": 6761,
      "torture": 6762,
      "flag": 6763,
      "trap": 6764,
      "keeps": 6765,
      "destiny": 6766,
      "Death": 6767,
      "suspense": 6768,
      "gratified": 6769,
      "appointment": 6770,
      "connections": 6771,
      "pockets": 6772,
      "million": 6773,
      "Highland": 6774,
      "dwelling": 6775,
      "conjecture": 6776,
      "coffin": 6777,
      "Doc": 6778,
      "Gro": 6779,
      "Oc": 6780,
      "Pont": 6781,
      "invisible": 6782,
      "atmo": 6783,
      "defect": 6784,
      "quant": 6785,
      "previously": 6786,
      "countess": 6787,
      "attentively": 6788,
      "deadly": 6789,
      "depended": 6790,
      "statement": 6791,
      "expectations": 6792,
      "burden": 6793,
      "custo": 6794,
      "tenderly": 6795,
      "gallop": 6796,
      "discussion": 6797,
      "Satur": 6798,
      "infinitely": 6799,
      "Mag": 6800,
      "Ty": 6801,
      "Wor": 6802,
      "sang": 6803,
      "tour": 6804,
      "rehears": 6805,
      "ench": 6806,
      "haz": 6807,
      "sul": 6808,
      "loaded": 6809,
      "iche": 6810,
      "assisted": 6811,
      "omin": 6812,
      "club": 6813,
      "hereafter": 6814,
      "consisted": 6815,
      "merchant": 6816,
      "landscape": 6817,
      "glancing": 6818,
      "commend": 6819,
      "Being": 6820,
      "formal": 6821,
      "purch": 6822,
      "sweep": 6823,
      "director": 6824,
      "steadily": 6825,
      "passionate": 6826,
      "flattered": 6827,
      "cheerfulness": 6828,
      "rers": 6829,
      "couch": 6830,
      "Green": 6831,
      "exclamation": 6832,
      "OOK": 6833,
      "Gawain": 6834,
      "Clar": 6835,
      "Fa": 6836,
      "Kor": 6837,
      "Mart": 6838,
      "ae": 6839,
      "bat": 6840,
      "damp": 6841,
      "pent": 6842,
      "pall": 6843,
      "tid": 6844,
      "incess": 6845,
      "rear": 6846,
      "sele": 6847,
      "mock": 6848,
      "tember": 6849,
      "upset": 6850,
      "illum": 6851,
      "dismay": 6852,
      "eless": 6853,
      "shaken": 6854,
      "ints": 6855,
      "prejud": 6856,
      "lasted": 6857,
      "finds": 6858,
      "purchase": 6859,
      "xture": 6860,
      "cupboard": 6861,
      "assume": 6862,
      "furious": 6863,
      "hospital": 6864,
      "adopted": 6865,
      "fidel": 6866,
      "sque": 6867,
      "theory": 6868,
      "encounter": 6869,
      "hiding": 6870,
      "cel": 6871,
      "rival": 6872,
      "procured": 6873,
      "desol": 6874,
      "market": 6875,
      "stolen": 6876,
      "mons": 6877,
      "chess": 6878,
      "shirt": 6879,
      "walks": 6880,
      "Edwards": 6881,
      "lords": 6882,
      "questioned": 6883,
      "convul": 6884,
      "Poole": 6885,
      "graceful": 6886,
      "Berlin": 6887,
      "instructions": 6888,
      "release": 6889,
      "Indian": 6890,
      "eminence": 6891,
      "September": 6892,
      "peoples": 6893,
      "Minerva": 6894,
      "34": 6895,
      "Pul": 6896,
      "Raffles": 6897,
      "TI": 6898,
      "bou": 6899,
      "lane": 6900,
      "rash": 6901,
      "wings": 6902,
      "ari": 6903,
      "aration": 6904,
      "idly": 6905,
      "pow": 6906,
      "ampa": 6907,
      "reduced": 6908,
      "shining": 6909,
      "closer": 6910,
      "charity": 6911,
      "enjoying": 6912,
      "crossing": 6913,
      "whist": 6914,
      "evils": 6915,
      "shadows": 6916,
      "stirred": 6917,
      "basket": 6918,
      "tranquil": 6919,
      "significant": 6920,
      "Renaud": 6921,
      "intelligent": 6922,
      "Thornhill": 6923,
      "waistcoat": 6924,
      "Sperm": 6925,
      "danced": 6926,
      "fran": 6927,
      "fisher": 6928,
      "mand": 6929,
      "investi": 6930,
      "haught": 6931,
      "dee": 6932,
      "coad": 6933,
      "terrors": 6934,
      "tial": 6935,
      "access": 6936,
      "dissip": 6937,
      "granted": 6938,
      "closet": 6939,
      "momentary": 6940,
      "shoes": 6941,
      "Holy": 6942,
      "fleet": 6943,
      "boxes": 6944,
      "injury": 6945,
      "banker": 6946,
      "Rosings": 6947,
      "portrait": 6948,
      "Trent": 6949,
      "forbear": 6950,
      "wearing": 6951,
      "alling": 6952,
      "agues": 6953,
      "readiness": 6954,
      "lessons": 6955,
      "airs": 6956,
      "confine": 6957,
      "interpret": 6958,
      "Royal": 6959,
      "recovery": 6960,
      "decent": 6961,
      "application": 6962,
      "obliging": 6963,
      "situated": 6964,
      "stroke": 6965,
      "phrase": 6966,
      "provide": 6967,
      "bench": 6968,
      "engagements": 6969,
      "bonnet": 6970,
      "flattering": 6971,
      "cultiv": 6972,
      "appreci": 6973,
      "iii": 6974,
      "changes": 6975,
      "completed": 6976,
      "struggling": 6977,
      "bewildered": 6978,
      "courtesy": 6979,
      "secrecy": 6980,
      "Crom": 6981,
      "Vas": 6982,
      "ially": 6983,
      "naught": 6984,
      "oak": 6985,
      "pred": 6986,
      "sar": 6987,
      "anks": 6988,
      "stat": 6989,
      "wifes": 6990,
      "liking": 6991,
      "feather": 6992,
      "exagger": 6993,
      "apsed": 6994,
      "dismissed": 6995,
      "theirs": 6996,
      "impe": 6997,
      "obvious": 6998,
      "lieutenant": 6999,
      "holds": 7000,
      "fearing": 7001,
      "slee": 7002,
      "accounts": 7003,
      "Yours": 7004,
      "chairs": 7005,
      "North": 7006,
      "draught": 7007,
      "suggestion": 7008,
      "indulge": 7009,
      "speedily": 7010,
      "apology": 7011,
      "improvement": 7012,
      "embraced": 7013,
      "Michael": 7014,
      "Saturday": 7015,
      "Know": 7016,
      "Rame": 7017,
      "fought": 7018,
      "lated": 7019,
      "rushing": 7020,
      "stal": 7021,
      "stated": 7022,
      "abhor": 7023,
      "ardent": 7024,
      "promo": 7025,
      "answers": 7026,
      "resting": 7027,
      "actual": 7028,
      "hearth": 7029,
      "avish": 7030,
      "atigu": 7031,
      "causes": 7032,
      "approved": 7033,
      "Morano": 7034,
      "apping": 7035,
      "treacher": 7036,
      "oblige": 7037,
      "century": 7038,
      "characteristic": 7039,
      "sails": 7040,
      "gleam": 7041,
      "Exc": 7042,
      "universe": 7043,
      "loudly": 7044,
      "amazed": 7045,
      "ascended": 7046,
      "ambition": 7047,
      "pillow": 7048,
      "luxu": 7049,
      "tossed": 7050,
      "hospitality": 7051,
      "carriages": 7052,
      "BOOK": 7053,
      "Cr": 7054,
      "Flo": 7055,
      "Lom": 7056,
      "MAR": 7057,
      "Till": 7058,
      "daz": 7059,
      "dashed": 7060,
      "radi": 7061,
      "ouch": 7062,
      "sevent": 7063,
      "loyal": 7064,
      "appl": 7065,
      "artistic": 7066,
      "rights": 7067,
      "humili": 7068,
      "volume": 7069,
      "recollections": 7070,
      "sadly": 7071,
      "communicate": 7072,
      "solemnly": 7073,
      "hints": 7074,
      "gaiety": 7075,
      "amidst": 7076,
      "curtains": 7077,
      "swiftly": 7078,
      "absorbed": 7079,
      "JU": 7080,
      "aver": 7081,
      "iment": 7082,
      "wits": 7083,
      "orrow": 7084,
      "leather": 7085,
      "alight": 7086,
      "termin": 7087,
      "tie": 7088,
      "foli": 7089,
      "shy": 7090,
      "afar": 7091,
      "clam": 7092,
      "goodnatured": 7093,
      "kingdom": 7094,
      "fairy": 7095,
      "spiritual": 7096,
      "despise": 7097,
      "vaults": 7098,
      "communicated": 7099,
      "diningroom": 7100,
      "comrades": 7101,
      "comparative": 7102,
      "atmosphere": 7103,
      "Cromwell": 7104,
      "Dou": 7105,
      "IR": 7106,
      "Lat": 7107,
      "Mas": 7108,
      "hadnt": 7109,
      "endous": 7110,
      "endured": 7111,
      "okes": 7112,
      "omen": 7113,
      "undertake": 7114,
      "shift": 7115,
      "careless": 7116,
      "barber": 7117,
      "winding": 7118,
      "Lydgates": 7119,
      "impressions": 7120,
      "involved": 7121,
      "thief": 7122,
      "marvellous": 7123,
      "Cat": 7124,
      "Pol": 7125,
      "Walter": 7126,
      "wond": 7127,
      "estee": 7128,
      "liqu": 7129,
      "mob": 7130,
      "ounded": 7131,
      "ression": 7132,
      "scre": 7133,
      "deeds": 7134,
      "sentine": 7135,
      "hunting": 7136,
      "answering": 7137,
      "delicious": 7138,
      "Peter": 7139,
      "mixture": 7140,
      "removal": 7141,
      "breathed": 7142,
      "preparations": 7143,
      "ChteauRenaud": 7144,
      "Georgiana": 7145,
      "coadju": 7146,
      "Fl": 7147,
      "Mars": 7148,
      "Pt": 7149,
      "fatigu": 7150,
      "vas": 7151,
      "reign": 7152,
      "thar": 7153,
      "stain": 7154,
      "rily": 7155,
      "detain": 7156,
      "undoubtedly": 7157,
      "poem": 7158,
      "button": 7159,
      "plant": 7160,
      "intoler": 7161,
      "torch": 7162,
      "ovitch": 7163,
      "studies": 7164,
      "recognize": 7165,
      "convenient": 7166,
      "partial": 7167,
      "feverish": 7168,
      "detective": 7169,
      "messenger": 7170,
      "Ptarth": 7171,
      "Cali": 7172,
      "Right": 7173,
      "infli": 7174,
      "nove": 7175,
      "washed": 7176,
      "resis": 7177,
      "respected": 7178,
      "beforehand": 7179,
      "tort": 7180,
      "Thurs": 7181,
      "Cock": 7182,
      "Although": 7183,
      "expressing": 7184,
      "extrem": 7185,
      "commands": 7186,
      "minges": 7187,
      "doctors": 7188,
      "swung": 7189,
      "magic": 7190,
      "Juli": 7191,
      "179": 7192,
      "resistance": 7193,
      "Shak": 7194,
      "Steel": 7195,
      "rascal": 7196,
      "vexation": 7197,
      "obedience": 7198,
      "Cheron": 7199,
      "Young": 7200,
      "lofty": 7201,
      "Clara": 7202,
      "Bundle": 7203,
      "Dus": 7204,
      "Tor": 7205,
      "lum": 7206,
      "mead": 7207,
      "sung": 7208,
      "los": 7209,
      "viv": 7210,
      "Youve": 7211,
      "specul": 7212,
      "preference": 7213,
      "acts": 7214,
      "wax": 7215,
      "depths": 7216,
      "invite": 7217,
      "warned": 7218,
      "Secret": 7219,
      "ornament": 7220,
      "cruelty": 7221,
      "entreated": 7222,
      "relieve": 7223,
      "Eugn": 7224,
      "sinking": 7225,
      "annoy": 7226,
      "extinguished": 7227,
      "Down": 7228,
      "Eury": 7229,
      "bing": 7230,
      "scient": 7231,
      "ux": 7232,
      "envy": 7233,
      "seize": 7234,
      "entit": 7235,
      "defici": 7236,
      "exchange": 7237,
      "exclaim": 7238,
      "icious": 7239,
      "medic": 7240,
      "kinds": 7241,
      "landed": 7242,
      "glit": 7243,
      "agreement": 7244,
      "transa": 7245,
      "grandfather": 7246,
      "banks": 7247,
      "designs": 7248,
      "positions": 7249,
      "attempts": 7250,
      "remote": 7251,
      "articles": 7252,
      "correspondence": 7253,
      "scrut": 7254,
      "narrative": 7255,
      "beadle": 7256,
      "Please": 7257,
      "Ramee": 7258,
      "Bates": 7259,
      "IL": 7260,
      "bers": 7261,
      "cities": 7262,
      "camp": 7263,
      "dried": 7264,
      "gor": 7265,
      "vre": 7266,
      "remed": 7267,
      "alDin": 7268,
      "irresis": 7269,
      "aments": 7270,
      "Marse": 7271,
      "avenue": 7272,
      "repeating": 7273,
      "Darcys": 7274,
      "Freddy": 7275,
      "catching": 7276,
      "Broct": 7277,
      "Quoth": 7278,
      "lawn": 7279,
      "remarkably": 7280,
      "Cadwall": 7281,
      "moderate": 7282,
      "independence": 7283,
      "lodgings": 7284,
      "Excuse": 7285,
      "AD": 7286,
      "Bu": 7287,
      "Low": 7288,
      "faded": 7289,
      "jest": 7290,
      "mask": 7291,
      "tap": 7292,
      "inspector": 7293,
      "requires": 7294,
      "mered": 7295,
      "stret": 7296,
      "rolling": 7297,
      "sore": 7298,
      "liest": 7299,
      "cock": 7300,
      "uncommon": 7301,
      "oused": 7302,
      "illust": 7303,
      "worship": 7304,
      "dish": 7305,
      "vivid": 7306,
      "awaken": 7307,
      "flashed": 7308,
      "spiration": 7309,
      "shows": 7310,
      "Elizabeths": 7311,
      "leads": 7312,
      "movements": 7313,
      "strengthen": 7314,
      "Brother": 7315,
      "enterpr": 7316,
      "persist": 7317,
      "funny": 7318,
      "surrounding": 7319,
      "physician": 7320,
      "manifest": 7321,
      "official": 7322,
      "inevitable": 7323,
      "Gentlemen": 7324,
      "22": 7325,
      "Da": 7326,
      "bay": 7327,
      "eter": 7328,
      "ials": 7329,
      "lunch": 7330,
      "rat": 7331,
      "reconci": 7332,
      "ero": 7333,
      "enquire": 7334,
      "orte": 7335,
      "advert": 7336,
      "irs": 7337,
      "docu": 7338,
      "amusing": 7339,
      "existed": 7340,
      "ifully": 7341,
      "foe": 7342,
      "estr": 7343,
      "traces": 7344,
      "intently": 7345,
      "whereby": 7346,
      "rows": 7347,
      "hearty": 7348,
      "appet": 7349,
      "chaise": 7350,
      "wrought": 7351,
      "visiting": 7352,
      "steward": 7353,
      "refusal": 7354,
      "miser": 7355,
      "hesitate": 7356,
      "fordshire": 7357,
      "declined": 7358,
      "prayed": 7359,
      "mansion": 7360,
      "forgetting": 7361,
      "Dorotheas": 7362,
      "axe": 7363,
      "governess": 7364,
      "requested": 7365,
      "candles": 7366,
      "critic": 7367,
      "critical": 7368,
      "obscure": 7369,
      "coadjutor": 7370,
      "Thursday": 7371,
      "Hal": 7372,
      "Nant": 7373,
      "cket": 7374,
      "science": 7375,
      "tiny": 7376,
      "enquired": 7377,
      "enzi": 7378,
      "tober": 7379,
      "model": 7380,
      "whip": 7381,
      "containing": 7382,
      "displeasure": 7383,
      "distrust": 7384,
      "inkled": 7385,
      "shaved": 7386,
      "spec": 7387,
      "whereupon": 7388,
      "surgeon": 7389,
      "writ": 7390,
      "regards": 7391,
      "tured": 7392,
      "fashioned": 7393,
      "reveal": 7394,
      "excessive": 7395,
      "oppressed": 7396,
      "Elvir": 7397,
      "Tomorrow": 7398,
      "dispute": 7399,
      "courteous": 7400,
      "subdued": 7401,
      "October": 7402,
      "Eugnie": 7403,
      "appetite": 7404,
      "Sid": 7405,
      "bons": 7406,
      "bending": 7407,
      "iot": 7408,
      "ibly": 7409,
      "pave": 7410,
      "injustice": 7411,
      "utions": 7412,
      "doll": 7413,
      "spur": 7414,
      "justly": 7415,
      "restless": 7416,
      "linen": 7417,
      "images": 7418,
      "dropping": 7419,
      "ridge": 7420,
      "harbour": 7421,
      "strove": 7422,
      "Fannys": 7423,
      "eaten": 7424,
      "cautious": 7425,
      "Grand": 7426,
      "beaten": 7427,
      "Newgate": 7428,
      "awaited": 7429,
      "Wheat": 7430,
      "baroness": 7431,
      "harpoone": 7432,
      "expenses": 7433,
      "wondrous": 7434,
      "39": 7435,
      "Earth": 7436,
      "Turn": 7437,
      "ka": 7438,
      "kins": 7439,
      "incur": 7440,
      "robe": 7441,
      "defer": 7442,
      "mann": 7443,
      "usive": 7444,
      "contain": 7445,
      "cane": 7446,
      "hedge": 7447,
      "passes": 7448,
      "backward": 7449,
      "throne": 7450,
      "parish": 7451,
      "activ": 7452,
      "flour": 7453,
      "maxim": 7454,
      "beds": 7455,
      "barbar": 7456,
      "thousands": 7457,
      "remainder": 7458,
      "praised": 7459,
      "Rienzi": 7460,
      "cheria": 7461,
      "Abbey": 7462,
      "observations": 7463,
      "philosopher": 7464,
      "gifts": 7465,
      "Wait": 7466,
      "tempered": 7467,
      "Doctor": 7468,
      "Abel": 7469,
      "CO": 7470,
      "Coun": 7471,
      "Cons": 7472,
      "dur": 7473,
      "ived": 7474,
      "lur": 7475,
      "mare": 7476,
      "whim": 7477,
      "welt": 7478,
      "withdraw": 7479,
      "urge": 7480,
      "ette": 7481,
      "shared": 7482,
      "rend": 7483,
      "repul": 7484,
      "brains": 7485,
      "Thereupon": 7486,
      "horn": 7487,
      "horrors": 7488,
      "hunt": 7489,
      "promises": 7490,
      "Benjam": 7491,
      "grandeur": 7492,
      "pulling": 7493,
      "falsehood": 7494,
      "prospects": 7495,
      "Whether": 7496,
      "diamond": 7497,
      "Pequod": 7498,
      "Secretary": 7499,
      "Bas": 7500,
      "Vi": 7501,
      "bath": 7502,
      "tun": 7503,
      "encoun": 7504,
      "behalf": 7505,
      "ghast": 7506,
      "saving": 7507,
      "onet": 7508,
      "quoth": 7509,
      "expose": 7510,
      "happiest": 7511,
      "prejudice": 7512,
      "dearly": 7513,
      "hunger": 7514,
      "smaller": 7515,
      "flowing": 7516,
      "detained": 7517,
      "Crawfords": 7518,
      "Highbury": 7519,
      "syllable": 7520,
      "persuasion": 7521,
      "glimpse": 7522,
      "fidelity": 7523,
      "Wheatman": 7524,
      "Der": 7525,
      "Pi": 7526,
      "Rody": 7527,
      "dus": 7528,
      "dangers": 7529,
      "eer": 7530,
      "eous": 7531,
      "raged": 7532,
      "ske": 7533,
      "waking": 7534,
      "heres": 7535,
      "heels": 7536,
      "ario": 7537,
      "bears": 7538,
      "veins": 7539,
      "chor": 7540,
      "liken": 7541,
      "unfortunately": 7542,
      "fame": 7543,
      "oppose": 7544,
      "worldly": 7545,
      "falls": 7546,
      "runs": 7547,
      "eyebrows": 7548,
      "missing": 7549,
      "thankful": 7550,
      "measures": 7551,
      "peculiarly": 7552,
      "Spir": 7553,
      "exceeding": 7554,
      "wander": 7555,
      "Thorpe": 7556,
      "limited": 7557,
      "maintain": 7558,
      "LETTER": 7559,
      "Governor": 7560,
      "Dusar": 7561,
      "Marseilles": 7562,
      "Adle": 7563,
      "Bou": 7564,
      "Dis": 7565,
      "jury": 7566,
      "scold": 7567,
      "total": 7568,
      "sullen": 7569,
      "sau": 7570,
      "shew": 7571,
      "clasp": 7572,
      "letons": 7573,
      "fires": 7574,
      "ficial": 7575,
      "necessarily": 7576,
      "colours": 7577,
      "habited": 7578,
      "bounded": 7579,
      "instruments": 7580,
      "furnish": 7581,
      "mix": 7582,
      "mirror": 7583,
      "issue": 7584,
      "Musgrove": 7585,
      "universal": 7586,
      "deemed": 7587,
      "Shakespe": 7588,
      "Bless": 7589,
      "Nature": 7590,
      "bby": 7591,
      "bind": 7592,
      "fountain": 7593,
      "enchant": 7594,
      "andtwenty": 7595,
      "itious": 7596,
      "haw": 7597,
      "ente": 7598,
      "adieu": 7599,
      "forever": 7600,
      "fired": 7601,
      "thoughtful": 7602,
      "type": 7603,
      "pleasantly": 7604,
      "tical": 7605,
      "chap": 7606,
      "expedition": 7607,
      "ladyship": 7608,
      "finest": 7609,
      "bese": 7610,
      "Morland": 7611,
      "declaration": 7612,
      "production": 7613,
      "Chamber": 7614,
      "detest": 7615,
      "interrupt": 7616,
      "rapidity": 7617,
      "faintly": 7618,
      "Comminges": 7619,
      "debts": 7620,
      "SaintMr": 7621,
      "contrived": 7622,
      "gathering": 7623,
      "rules": 7624,
      "Nantuc": 7625,
      "Au": 7626,
      "Ham": 7627,
      "Happ": 7628,
      "dwelt": 7629,
      "tables": 7630,
      "yr": 7631,
      "zes": 7632,
      "reference": 7633,
      "reconc": 7634,
      "rium": 7635,
      "doom": 7636,
      "whoever": 7637,
      "fog": 7638,
      "problem": 7639,
      "retain": 7640,
      "vial": 7641,
      "chion": 7642,
      "considerably": 7643,
      "penny": 7644,
      "Goodbye": 7645,
      "Convent": 7646,
      "interruption": 7647,
      "errors": 7648,
      "failure": 7649,
      "vereign": 7650,
      "polished": 7651,
      "Chief": 7652,
      "encouraging": 7653,
      "beasts": 7654,
      "liberal": 7655,
      "maintained": 7656,
      "preparation": 7657,
      "Victor": 7658,
      "Avri": 7659,
      "CAP": 7660,
      "JULI": 7661,
      "Rodya": 7662,
      "Hert": 7663,
      "June": 7664,
      "TA": 7665,
      "dined": 7666,
      "jet": 7667,
      "romance": 7668,
      "wasted": 7669,
      "soothing": 7670,
      "rient": 7671,
      "defi": 7672,
      "moan": 7673,
      "onels": 7674,
      "disdain": 7675,
      "clut": 7676,
      "intending": 7677,
      "blank": 7678,
      "guided": 7679,
      "Emerson": 7680,
      "anned": 7681,
      "dieu": 7682,
      "complac": 7683,
      "peaceful": 7684,
      "cheerfully": 7685,
      "admirable": 7686,
      "alarming": 7687,
      "await": 7688,
      "viathan": 7689,
      "Alexandrov": 7690,
      "peasants": 7691,
      "expressive": 7692,
      "privilege": 7693,
      "Pulcheria": 7694,
      "pavement": 7695,
      "Shakespeare": 7696,
      "Bra": 7697,
      "Cu": 7698,
      "DY": 7699,
      "Sop": 7700,
      "bber": 7701,
      "eli": 7702,
      "econ": 7703,
      "py": 7704,
      "ule": 7705,
      "liament": 7706,
      "disposal": 7707,
      "tramp": 7708,
      "inted": 7709,
      "species": 7710,
      "evenings": 7711,
      "scent": 7712,
      "blade": 7713,
      "courty": 7714,
      "landlord": 7715,
      "stein": 7716,
      "Belie": 7717,
      "Luz": 7718,
      "seconds": 7719,
      "cellar": 7720,
      "sibility": 7721,
      "drift": 7722,
      "Charley": 7723,
      "gloves": 7724,
      "seats": 7725,
      "youthful": 7726,
      "genial": 7727,
      "creation": 7728,
      "creep": 7729,
      "grieve": 7730,
      "peasant": 7731,
      "Hayde": 7732,
      "investig": 7733,
      "Hertfordshire": 7734,
      "Den": 7735,
      "Dick": 7736,
      "Jav": 7737,
      "Sto": 7738,
      "Wed": 7739,
      "iance": 7740,
      "sperm": 7741,
      "thread": 7742,
      "ceiling": 7743,
      "weigh": 7744,
      "kete": 7745,
      "eling": 7746,
      "youngest": 7747,
      "flames": 7748,
      "distri": 7749,
      "solution": 7750,
      "Stand": 7751,
      "crimson": 7752,
      "current": 7753,
      "promising": 7754,
      "beauties": 7755,
      "Countess": 7756,
      "Leave": 7757,
      "groves": 7758,
      "People": 7759,
      "legal": 7760,
      "indulged": 7761,
      "Life": 7762,
      "victory": 7763,
      "Place": 7764,
      "filling": 7765,
      "pistols": 7766,
      "Farewell": 7767,
      "glowing": 7768,
      "troublesome": 7769,
      "Alexander": 7770,
      "Janes": 7771,
      "Bourgh": 7772,
      "Caliph": 7773,
      "likeness": 7774,
      "Avrigny": 7775,
      "JULIET": 7776,
      "47": 7777,
      "Abb": 7778,
      "Cade": 7779,
      "Gay": 7780,
      "Les": 7781,
      "cris": 7782,
      "kic": 7783,
      "lings": 7784,
      "pages": 7785,
      "zing": 7786,
      "rese": 7787,
      "ston": 7788,
      "spy": 7789,
      "giant": 7790,
      "verses": 7791,
      "atives": 7792,
      "roads": 7793,
      "gardens": 7794,
      "student": 7795,
      "patiently": 7796,
      "operation": 7797,
      "punish": 7798,
      "dimin": 7799,
      "dignified": 7800,
      "literary": 7801,
      "exhib": 7802,
      "Dunst": 7803,
      "assembly": 7804,
      "Henrietta": 7805,
      "quantity": 7806,
      "entitled": 7807,
      "Cadwallader": 7808,
      "chioness": 7809,
      "35": 7810,
      "Adieu": 7811,
      "Bessie": 7812,
      "Cont": 7813,
      "Del": 7814,
      "EL": 7815,
      "mould": 7816,
      "naked": 7817,
      "pig": 7818,
      "swo": 7819,
      "slay": 7820,
      "inth": 7821,
      "itably": 7822,
      "seam": 7823,
      "root": 7824,
      "ilgrim": 7825,
      "blew": 7826,
      "strang": 7827,
      "fulfil": 7828,
      "bliss": 7829,
      "stillness": 7830,
      "Stay": 7831,
      "tempest": 7832,
      "Bell": 7833,
      "differently": 7834,
      "suspended": 7835,
      "valet": 7836,
      "animals": 7837,
      "symptoms": 7838,
      "Beaufort": 7839,
      "mourning": 7840,
      "Admir": 7841,
      "traveller": 7842,
      "Gregory": 7843,
      "Cockato": 7844,
      "Benjamin": 7845,
      "Etien": 7846,
      "Way": 7847,
      "fishing": 7848,
      "lend": 7849,
      "pant": 7850,
      "ratt": 7851,
      "tin": 7852,
      "behave": 7853,
      "rog": 7854,
      "consp": 7855,
      "coarse": 7856,
      "cture": 7857,
      "ural": 7858,
      "acute": 7859,
      "traced": 7860,
      "sprung": 7861,
      "ideal": 7862,
      "wellknown": 7863,
      "goodwill": 7864,
      "grasped": 7865,
      "precip": 7866,
      "shocking": 7867,
      "subm": 7868,
      "lingered": 7869,
      "allowing": 7870,
      "realised": 7871,
      "Bennets": 7872,
      "welcomed": 7873,
      "severity": 7874,
      "killing": 7875,
      "adopt": 7876,
      "imaginary": 7877,
      "snatched": 7878,
      "benevolence": 7879,
      "mournful": 7880,
      "sumption": 7881,
      "chimney": 7882,
      "British": 7883,
      "slumber": 7884,
      "powder": 7885,
      "Alexandrovna": 7886,
      "courtyard": 7887,
      "CH": 7888,
      "Nur": 7889,
      "Stick": 7890,
      "cue": 7891,
      "jar": 7892,
      "plot": 7893,
      "xx": 7894,
      "iners": 7895,
      "inhabited": 7896,
      "stable": 7897,
      "aye": 7898,
      "supre": 7899,
      "lore": 7900,
      "saith": 7901,
      "unken": 7902,
      "unaccount": 7903,
      "sheets": 7904,
      "abomin": 7905,
      "dili": 7906,
      "branch": 7907,
      "offers": 7908,
      "tya": 7909,
      "president": 7910,
      "matri": 7911,
      "worlds": 7912,
      "gentleness": 7913,
      "reasonably": 7914,
      "autumn": 7915,
      "Monk": 7916,
      "drunken": 7917,
      "casement": 7918,
      "whit": 7919,
      "conversing": 7920,
      "Catherines": 7921,
      "astonishing": 7922,
      "flowed": 7923,
      "chers": 7924,
      "animation": 7925,
      "descending": 7926,
      "swallowed": 7927,
      "Casaubons": 7928,
      "attacked": 7929,
      "miracle": 7930,
      "superiority": 7931,
      "objections": 7932,
      "valued": 7933,
      "searching": 7934,
      "deserving": 7935,
      "activity": 7936,
      "Cockatoo": 7937,
      "Fish": 7938,
      "Little": 7939,
      "bonds": 7940,
      "cough": 7941,
      "matt": 7942,
      "sway": 7943,
      "uary": 7944,
      "thered": 7945,
      "rosy": 7946,
      "hore": 7947,
      "rical": 7948,
      "uss": 7949,
      "shutter": 7950,
      "discreet": 7951,
      "foreseen": 7952,
      "fiend": 7953,
      "mary": 7954,
      "minis": 7955,
      "glas": 7956,
      "steam": 7957,
      "childs": 7958,
      "captiv": 7959,
      "Monday": 7960,
      "comforts": 7961,
      "flushed": 7962,
      "crushed": 7963,
      "burned": 7964,
      "earnestness": 7965,
      "eighteen": 7966,
      "Willoughbys": 7967,
      "solemnity": 7968,
      "Comte": 7969,
      "collect": 7970,
      "proofs": 7971,
      "entertainment": 7972,
      "Lydias": 7973,
      "schemes": 7974,
      "attempting": 7975,
      "wrath": 7976,
      "tremendous": 7977,
      "released": 7978,
      "obscurity": 7979,
      "convention": 7980,
      "eloquence": 7981,
      "Latin": 7982,
      "Bri": 7983,
      "Five": 7984,
      "Gi": 7985,
      "Mc": 7986,
      "Over": 7987,
      "aunts": 7988,
      "recess": 7989,
      "asper": 7990,
      "aroused": 7991,
      "meek": 7992,
      "uncommonly": 7993,
      "dotya": 7994,
      "artist": 7995,
      "disease": 7996,
      "trous": 7997,
      "elbow": 7998,
      "scra": 7999,
      "ladder": 8000,
      "engaging": 8001,
      "Forster": 8002,
      "reasoning": 8003,
      "prized": 8004,
      "Fogg": 8005,
      "sixteen": 8006,
      "humoured": 8007,
      "numbers": 8008,
      "endeavours": 8009,
      "Ques": 8010,
      "balls": 8011,
      "apolog": 8012,
      "hurrying": 8013,
      "snapped": 8014,
      "President": 8015,
      "forbidden": 8016,
      "Avdotya": 8017,
      "faculties": 8018,
      "extensive": 8019,
      "intolerable": 8020,
      "Card": 8021,
      "Fin": 8022,
      "Hus": 8023,
      "Haw": 8024,
      "Pass": 8025,
      "Tues": 8026,
      "oon": 8027,
      "pink": 8028,
      "vine": 8029,
      "inity": 8030,
      "tops": 8031,
      "astern": 8032,
      "haunted": 8033,
      "leagues": 8034,
      "load": 8035,
      "lope": 8036,
      "local": 8037,
      "fected": 8038,
      "femin": 8039,
      "actor": 8040,
      "resigned": 8041,
      "planted": 8042,
      "trad": 8043,
      "eyel": 8044,
      "stool": 8045,
      "actly": 8046,
      "curse": 8047,
      "allows": 8048,
      "delights": 8049,
      "hinder": 8050,
      "ensions": 8051,
      "sym": 8052,
      "despised": 8053,
      "sixty": 8054,
      "saluted": 8055,
      "puff": 8056,
      "smoking": 8057,
      "punished": 8058,
      "measured": 8059,
      "policeman": 8060,
      "Steele": 8061,
      "significance": 8062,
      "disguised": 8063,
      "borrowed": 8064,
      "Stirling": 8065,
      "Featherstone": 8066,
      "warrant": 8067,
      "Tuesday": 8068,
      "Much": 8069,
      "Pene": 8070,
      "tast": 8071,
      "infant": 8072,
      "ands": 8073,
      "sealed": 8074,
      "beams": 8075,
      "idity": 8076,
      "hoarse": 8077,
      "upright": 8078,
      "appar": 8079,
      "disper": 8080,
      "retained": 8081,
      "rents": 8082,
      "goods": 8083,
      "Instead": 8084,
      "throng": 8085,
      "merits": 8086,
      "foundation": 8087,
      "Jos": 8088,
      "Ifrit": 8089,
      "hesitating": 8090,
      "drago": 8091,
      "ension": 8092,
      "towns": 8093,
      "muskete": 8094,
      "horseback": 8095,
      "conclude": 8096,
      "pitch": 8097,
      "Exactly": 8098,
      "protected": 8099,
      "deprive": 8100,
      "vacant": 8101,
      "climbed": 8102,
      "weapon": 8103,
      "sketch": 8104,
      "Douglas": 8105,
      "Believe": 8106,
      "36": 8107,
      "38": 8108,
      "46": 8109,
      "Ba": 8110,
      "Bon": 8111,
      "Next": 8112,
      "Put": 8113,
      "pines": 8114,
      "oner": 8115,
      "isk": 8116,
      "metal": 8117,
      "wiped": 8118,
      "verb": 8119,
      "irregular": 8120,
      "essential": 8121,
      "exchanged": 8122,
      "derived": 8123,
      "comment": 8124,
      "attain": 8125,
      "hypo": 8126,
      "waving": 8127,
      "cursed": 8128,
      "childhood": 8129,
      "accuse": 8130,
      "bargain": 8131,
      "flood": 8132,
      "Reed": 8133,
      "hammer": 8134,
      "stuck": 8135,
      "pursuing": 8136,
      "damned": 8137,
      "feature": 8138,
      "demands": 8139,
      "banished": 8140,
      "designed": 8141,
      "whaling": 8142,
      "logical": 8143,
      "struggled": 8144,
      "excessively": 8145,
      "Jonah": 8146,
      "cabinet": 8147,
      "imprudence": 8148,
      "impertinent": 8149,
      "perplex": 8150,
      "scandal": 8151,
      "Genev": 8152,
      "dazz": 8153,
      "1st": 8154,
      "Grace": 8155,
      "Tay": 8156,
      "laz": 8157,
      "tasted": 8158,
      "indeb": 8159,
      "remonstr": 8160,
      "encies": 8161,
      "toil": 8162,
      "rier": 8163,
      "covering": 8164,
      "feed": 8165,
      "shell": 8166,
      "disorder": 8167,
      "thereby": 8168,
      "elapsed": 8169,
      "compare": 8170,
      "spell": 8171,
      "brut": 8172,
      "earn": 8173,
      "ttes": 8174,
      "ranean": 8175,
      "instances": 8176,
      "brotherinlaw": 8177,
      "fication": 8178,
      "block": 8179,
      "occasional": 8180,
      "ternal": 8181,
      "kissing": 8182,
      "Woman": 8183,
      "crazy": 8184,
      "Chett": 8185,
      "partiality": 8186,
      "professional": 8187,
      "awaiting": 8188,
      "vigorous": 8189,
      "protested": 8190,
      "monstrous": 8191,
      "intelligible": 8192,
      "resource": 8193,
      "temporary": 8194,
      "Etienne": 8195,
      "Stickles": 8196,
      "indebted": 8197,
      "Make": 8198,
      "Price": 8199,
      "Sel": 8200,
      "VO": 8201,
      "Var": 8202,
      "eches": 8203,
      "lac": 8204,
      "uff": 8205,
      "revel": 8206,
      "orable": 8207,
      "wives": 8208,
      "chuse": 8209,
      "sovereign": 8210,
      "costu": 8211,
      "fere": 8212,
      "icable": 8213,
      "Hel": 8214,
      "discharge": 8215,
      "aux": 8216,
      "series": 8217,
      "offend": 8218,
      "preci": 8219,
      "impud": 8220,
      "subsequ": 8221,
      "enery": 8222,
      "itudes": 8223,
      "childish": 8224,
      "capacity": 8225,
      "Thine": 8226,
      "comforted": 8227,
      "helping": 8228,
      "wonderfully": 8229,
      "dreadfully": 8230,
      "embro": 8231,
      "dependence": 8232,
      "delirium": 8233,
      "sadness": 8234,
      "Jenningss": 8235,
      "lodge": 8236,
      "sighs": 8237,
      "entreaties": 8238,
      "parlor": 8239,
      "XVIII": 8240,
      "educated": 8241,
      "Book": 8242,
      "inspire": 8243,
      "promptly": 8244,
      "earliest": 8245,
      "contract": 8246,
      "susceptible": 8247,
      "Majesty": 8248,
      "esteemed": 8249,
      "Last": 8250,
      "bend": 8251,
      "fan": 8252,
      "knot": 8253,
      "phon": 8254,
      "myon": 8255,
      "coo": 8256,
      "unnatural": 8257,
      "aca": 8258,
      "persever": 8259,
      "william": 8260,
      "Helen": 8261,
      "dismal": 8262,
      "plac": 8263,
      "fiery": 8264,
      "eyed": 8265,
      "rubbed": 8266,
      "tales": 8267,
      "glances": 8268,
      "interference": 8269,
      "recovering": 8270,
      "strikes": 8271,
      "Semyon": 8272,
      "constancy": 8273,
      "garments": 8274,
      "bbery": 8275,
      "lifting": 8276,
      "accusation": 8277,
      "discuss": 8278,
      "twisted": 8279,
      "Romanovna": 8280,
      "sensibly": 8281,
      "Child": 8282,
      "congratulate": 8283,
      "Clare": 8284,
      "ecst": 8285,
      "anticipated": 8286,
      "imprudent": 8287,
      "overwhelmed": 8288,
      "guineas": 8289,
      "dungeon": 8290,
      "irresistible": 8291,
      "Penelope": 8292,
      "City": 8293,
      "Ey": 8294,
      "Gar": 8295,
      "Parsonage": 8296,
      "Yor": 8297,
      "craw": 8298,
      "han": 8299,
      "jac": 8300,
      "link": 8301,
      "enlight": 8302,
      "nomin": 8303,
      "stately": 8304,
      "ales": 8305,
      "ungrateful": 8306,
      "tery": 8307,
      "theyre": 8308,
      "sies": 8309,
      "Ange": 8310,
      "readers": 8311,
      "solved": 8312,
      "landlady": 8313,
      "needle": 8314,
      "secretary": 8315,
      "spectacles": 8316,
      "Peru": 8317,
      "proceedings": 8318,
      "inclinations": 8319,
      "salt": 8320,
      "attendance": 8321,
      "delayed": 8322,
      "severely": 8323,
      "scruple": 8324,
      "cordial": 8325,
      "resources": 8326,
      "Upper": 8327,
      "Fitzwilliam": 8328,
      "Faith": 8329,
      "SaintMran": 8330,
      "Duc": 8331,
      "Ith": 8332,
      "Sw": 8333,
      "honey": 8334,
      "rack": 8335,
      "soften": 8336,
      "swore": 8337,
      "anne": 8338,
      "ensive": 8339,
      "lowered": 8340,
      "unreasonable": 8341,
      "tians": 8342,
      "ample": 8343,
      "spout": 8344,
      "begging": 8345,
      "engers": 8346,
      "interfere": 8347,
      "continuing": 8348,
      "accepting": 8349,
      "vault": 8350,
      "fifth": 8351,
      "suffice": 8352,
      "regretted": 8353,
      "fashionable": 8354,
      "devils": 8355,
      "balcon": 8356,
      "assurances": 8357,
      "consulted": 8358,
      "additional": 8359,
      "Egypt": 8360,
      "Hurst": 8361,
      "Sidney": 8362,
      "costume": 8363,
      "45": 8364,
      "Cour": 8365,
      "ED": 8366,
      "Ear": 8367,
      "Rinald": 8368,
      "fitting": 8369,
      "gul": 8370,
      "guns": 8371,
      "healthy": 8372,
      "inch": 8373,
      "stim": 8374,
      "sooth": 8375,
      "hom": 8376,
      "abstra": 8377,
      "indi": 8378,
      "yourselves": 8379,
      "shant": 8380,
      "worried": 8381,
      "gered": 8382,
      "traged": 8383,
      "veness": 8384,
      "mbre": 8385,
      "whereon": 8386,
      "pleases": 8387,
      "smith": 8388,
      "chambers": 8389,
      "Beaut": 8390,
      "humb": 8391,
      "bells": 8392,
      "0000": 8393,
      "drawer": 8394,
      "Laurence": 8395,
      "studying": 8396,
      "bidding": 8397,
      "sickness": 8398,
      "attendant": 8399,
      "witnesses": 8400,
      "collection": 8401,
      "attractive": 8402,
      "machine": 8403,
      "executed": 8404,
      "summons": 8405,
      "Shah": 8406,
      "scruples": 8407,
      "ceremon": 8408,
      "favorite": 8409,
      "Truth": 8410,
      "Harker": 8411,
      "censure": 8412,
      "York": 8413,
      "Ithaca": 8414,
      "Humph": 8415,
      "Mort": 8416,
      "fow": 8417,
      "flies": 8418,
      "gale": 8419,
      "oy": 8420,
      "onis": 8421,
      "unlucky": 8422,
      "perfection": 8423,
      "prow": 8424,
      "compose": 8425,
      "spr": 8426,
      "clan": 8427,
      "strate": 8428,
      "repair": 8429,
      "pton": 8430,
      "jewel": 8431,
      "Theresa": 8432,
      "subtle": 8433,
      "namely": 8434,
      "slain": 8435,
      "slaves": 8436,
      "hasten": 8437,
      "topic": 8438,
      "cherished": 8439,
      "Peters": 8440,
      "theatrical": 8441,
      "involuntarily": 8442,
      "indicated": 8443,
      "fixing": 8444,
      "fantastic": 8445,
      "procession": 8446,
      "published": 8447,
      "assassin": 8448,
      "extravagant": 8449,
      "cliffs": 8450,
      "Martin": 8451,
      "scientific": 8452,
      "reconciled": 8453,
      "Dunstans": 8454,
      "Dian": 8455,
      "Nep": 8456,
      "Rep": 8457,
      "XI": 8458,
      "awhile": 8459,
      "nigh": 8460,
      "pious": 8461,
      "push": 8462,
      "schol": 8463,
      "uity": 8464,
      "uries": 8465,
      "wreck": 8466,
      "anter": 8467,
      "token": 8468,
      "tocr": 8469,
      "ision": 8470,
      "serene": 8471,
      "novel": 8472,
      "roses": 8473,
      "dece": 8474,
      "rescue": 8475,
      "wheels": 8476,
      "dispose": 8477,
      "plu": 8478,
      "composition": 8479,
      "immortal": 8480,
      "Shes": 8481,
      "clue": 8482,
      "carpet": 8483,
      "Stu": 8484,
      "licit": 8485,
      "refusing": 8486,
      "skil": 8487,
      "harmony": 8488,
      "Black": 8489,
      "Germany": 8490,
      "Rochefort": 8491,
      "heightened": 8492,
      "insulted": 8493,
      "executioner": 8494,
      "LADY": 8495,
      "gossip": 8496,
      "complaints": 8497,
      "emeralds": 8498,
      "frantic": 8499,
      "Wayn": 8500,
      "48": 8501,
      "Hard": 8502,
      "MA": 8503,
      "bab": 8504,
      "cattle": 8505,
      "dAvrigny": 8506,
      "gasped": 8507,
      "mute": 8508,
      "paced": 8509,
      "zer": 8510,
      "lev": 8511,
      "stre": 8512,
      "tiers": 8513,
      "arted": 8514,
      "overheard": 8515,
      "offices": 8516,
      "duly": 8517,
      "ieties": 8518,
      "spoil": 8519,
      "refined": 8520,
      "choo": 8521,
      "lini": 8522,
      "hush": 8523,
      "judging": 8524,
      "penit": 8525,
      "pencil": 8526,
      "Counts": 8527,
      "Lothar": 8528,
      "commonplace": 8529,
      "Const": 8530,
      "Lovetts": 8531,
      "sports": 8532,
      "Enter": 8533,
      "hinted": 8534,
      "ENT": 8535,
      "stirring": 8536,
      "revolution": 8537,
      "picturesque": 8538,
      "rapture": 8539,
      "dramatic": 8540,
      "Faria": 8541,
      "Keep": 8542,
      "sacrificed": 8543,
      "newspaper": 8544,
      "Superintendent": 8545,
      "Consider": 8546,
      "Quesnel": 8547,
      "Emp": 8548,
      "bi": 8549,
      "thetic": 8550,
      "recur": 8551,
      "estic": 8552,
      "seal": 8553,
      "leaf": 8554,
      "stare": 8555,
      "chances": 8556,
      "altern": 8557,
      "adjoining": 8558,
      "sured": 8559,
      "agers": 8560,
      "excur": 8561,
      "perman": 8562,
      "propos": 8563,
      "prodig": 8564,
      "trunk": 8565,
      "sia": 8566,
      "spending": 8567,
      "clad": 8568,
      "anging": 8569,
      "gigan": 8570,
      "county": 8571,
      "ranks": 8572,
      "accents": 8573,
      "sunlight": 8574,
      "deepest": 8575,
      "floating": 8576,
      "coldly": 8577,
      "gentlemans": 8578,
      "mentioning": 8579,
      "conceit": 8580,
      "terrific": 8581,
      "voluntarily": 8582,
      "Everybody": 8583,
      "repeatedly": 8584,
      "succeeding": 8585,
      "Donna": 8586,
      "exertions": 8587,
      "basin": 8588,
      "imperfect": 8589,
      "annoyed": 8590,
      "frankly": 8591,
      "scrat": 8592,
      "gallantry": 8593,
      "haughty": 8594,
      "extremity": 8595,
      "Luzhin": 8596,
      "supreme": 8597,
      "Bha": 8598,
      "Jew": 8599,
      "Law": 8600,
      "Off": 8601,
      "Ru": 8602,
      "Sal": 8603,
      "Sim": 8604,
      "bled": 8605,
      "dak": 8606,
      "godd": 8607,
      "lorn": 8608,
      "nour": 8609,
      "ored": 8610,
      "pile": 8611,
      "unob": 8612,
      "ller": 8613,
      "forci": 8614,
      "lots": 8615,
      "cope": 8616,
      "abuse": 8617,
      "ressive": 8618,
      "dispat": 8619,
      "therein": 8620,
      "woo": 8621,
      "owned": 8622,
      "spear": 8623,
      "serving": 8624,
      "whereof": 8625,
      "cheap": 8626,
      "steed": 8627,
      "supposition": 8628,
      "personally": 8629,
      "cumb": 8630,
      "halfpast": 8631,
      "purposes": 8632,
      "Almighty": 8633,
      "appropri": 8634,
      "respectful": 8635,
      "exciting": 8636,
      "summit": 8637,
      "bowing": 8638,
      "persisted": 8639,
      "ivory": 8640,
      "Orbe": 8641,
      "reported": 8642,
      "vessels": 8643,
      "boldly": 8644,
      "Middletons": 8645,
      "consistent": 8646,
      "screamed": 8647,
      "mortification": 8648,
      "conquer": 8649,
      "Venice": 8650,
      "enquiries": 8651,
      "Roderick": 8652,
      "collar": 8653,
      "shriek": 8654,
      "distracted": 8655,
      "intellectual": 8656,
      "leveland": 8657,
      "reverie": 8658,
      "Derby": 8659,
      "beseech": 8660,
      "gigantic": 8661,
      "Cleveland": 8662,
      "Eh": 8663,
      "Elean": 8664,
      "Pardon": 8665,
      "ULET": 8666,
      "Whal": 8667,
      "Whit": 8668,
      "apers": 8669,
      "fainted": 8670,
      "mont": 8671,
      "vap": 8672,
      "vary": 8673,
      "replaced": 8674,
      "ouched": 8675,
      "beck": 8676,
      "rial": 8677,
      "locks": 8678,
      "sale": 8679,
      "Heres": 8680,
      "astro": 8681,
      "provision": 8682,
      "stomach": 8683,
      "scenery": 8684,
      "ums": 8685,
      "paraly": 8686,
      "Stone": 8687,
      "mornings": 8688,
      "trim": 8689,
      "signify": 8690,
      "Brand": 8691,
      "quarre": 8692,
      "athetic": 8693,
      "studi": 8694,
      "assistant": 8695,
      "Time": 8696,
      "selfishness": 8697,
      "enthusiastic": 8698,
      "Thornfield": 8699,
      "conquered": 8700,
      "luxury": 8701,
      "noisy": 8702,
      "stamped": 8703,
      "Hastings": 8704,
      "enterprise": 8705,
      "chorus": 8706,
      "CAPULET": 8707,
      "district": 8708,
      "coolly": 8709,
      "Camp": 8710,
      "Dan": 8711,
      "Ir": 8712,
      "XIII": 8713,
      "cate": 8714,
      "glim": 8715,
      "vices": 8716,
      "anarch": 8717,
      "reject": 8718,
      "retorted": 8719,
      "attic": 8720,
      "eddak": 8721,
      "altar": 8722,
      "alliance": 8723,
      "console": 8724,
      "dew": 8725,
      "unite": 8726,
      "doomed": 8727,
      "agent": 8728,
      "teaching": 8729,
      "exasper": 8730,
      "persec": 8731,
      "plat": 8732,
      "overcame": 8733,
      "distribut": 8734,
      "versed": 8735,
      "bush": 8736,
      "pretence": 8737,
      "wonders": 8738,
      "stricken": 8739,
      "affectionately": 8740,
      "planet": 8741,
      "Montonis": 8742,
      "Mosle": 8743,
      "faithfully": 8744,
      "pitied": 8745,
      "luckily": 8746,
      "dys": 8747,
      "apolo": 8748,
      "fruits": 8749,
      "utenberg": 8750,
      "issued": 8751,
      "originally": 8752,
      "attributed": 8753,
      "referred": 8754,
      "Egyp": 8755,
      "hazard": 8756,
      "Spirit": 8757,
      "Wednes": 8758,
      "Bed": 8759,
      "Bright": 8760,
      "Bring": 8761,
      "Bapt": 8762,
      "CON": 8763,
      "Kil": 8764,
      "Lane": 8765,
      "Mill": 8766,
      "Wild": 8767,
      "XII": 8768,
      "cave": 8769,
      "inces": 8770,
      "rejected": 8771,
      "hable": 8772,
      "adise": 8773,
      "holid": 8774,
      "rescu": 8775,
      "exal": 8776,
      "endless": 8777,
      "angrily": 8778,
      "cigar": 8779,
      "pressure": 8780,
      "joyou": 8781,
      "mature": 8782,
      "tedious": 8783,
      "wrist": 8784,
      "expedi": 8785,
      "tricks": 8786,
      "welfare": 8787,
      "Reg": 8788,
      "harp": 8789,
      "gratification": 8790,
      "malice": 8791,
      "results": 8792,
      "threatening": 8793,
      "ING": 8794,
      "bottles": 8795,
      "pledge": 8796,
      "politely": 8797,
      "vocation": 8798,
      "shooting": 8799,
      "Venus": 8800,
      "Rodion": 8801,
      "Boris": 8802,
      "Lomax": 8803,
      "Flask": 8804,
      "Admiral": 8805,
      "trousers": 8806,
      "deceit": 8807,
      "Wednesday": 8808,
      "Cal": 8809,
      "Sit": 8810,
      "Thi": 8811,
      "dArtagnan": 8812,
      "fence": 8813,
      "gam": 8814,
      "lers": 8815,
      "lances": 8816,
      "tread": 8817,
      "thic": 8818,
      "endow": 8819,
      "oring": 8820,
      "itive": 8821,
      "advers": 8822,
      "ambit": 8823,
      "rav": 8824,
      "indust": 8825,
      "sie": 8826,
      "canst": 8827,
      "mule": 8828,
      "clung": 8829,
      "Nove": 8830,
      "prescri": 8831,
      "commence": 8832,
      "appearances": 8833,
      "crue": 8834,
      "floated": 8835,
      "thirst": 8836,
      "mouse": 8837,
      "flete": 8838,
      "concealment": 8839,
      "recognise": 8840,
      "cautions": 8841,
      "attraction": 8842,
      "antial": 8843,
      "hurriedly": 8844,
      "fancies": 8845,
      "contemplation": 8846,
      "bodily": 8847,
      "Hasan": 8848,
      "whispering": 8849,
      "groaned": 8850,
      "assertion": 8851,
      "deserves": 8852,
      "newspapers": 8853,
      "Franc": 8854,
      "receipt": 8855,
      "tidings": 8856,
      "unaccountable": 8857,
      "Eyre": 8858,
      "Waynflete": 8859,
      "Apri": 8860,
      "Jes": 8861,
      "Kar": 8862,
      "Must": 8863,
      "aired": 8864,
      "bits": 8865,
      "dled": 8866,
      "fret": 8867,
      "mble": 8868,
      "chanced": 8869,
      "idable": 8870,
      "noted": 8871,
      "riches": 8872,
      "pole": 8873,
      "mantle": 8874,
      "estates": 8875,
      "disinterested": 8876,
      "canvas": 8877,
      "compet": 8878,
      "oms": 8879,
      "goodbye": 8880,
      "repu": 8881,
      "speeches": 8882,
      "brisk": 8883,
      "screw": 8884,
      "beggar": 8885,
      "torney": 8886,
      "ignant": 8887,
      "confli": 8888,
      "purity": 8889,
      "aneous": 8890,
      "spirited": 8891,
      "bandit": 8892,
      "aristocr": 8893,
      "wildly": 8894,
      "Pepp": 8895,
      "Wickhams": 8896,
      "afflicted": 8897,
      "packed": 8898,
      "disturbance": 8899,
      "obligations": 8900,
      "searched": 8901,
      "washing": 8902,
      "Chettam": 8903,
      "Rinaldi": 8904,
      "Diana": 8905,
      "59": 8906,
      "Lavish": 8907,
      "Nuns": 8908,
      "Odys": 8909,
      "Pa": 8910,
      "RA": 8911,
      "Squ": 8912,
      "Sil": 8913,
      "Sever": 8914,
      "XIV": 8915,
      "aire": 8916,
      "cade": 8917,
      "dre": 8918,
      "dwar": 8919,
      "fits": 8920,
      "gas": 8921,
      "gus": 8922,
      "gars": 8923,
      "hanged": 8924,
      "mend": 8925,
      "nard": 8926,
      "pment": 8927,
      "rine": 8928,
      "roubles": 8929,
      "swer": 8930,
      "uf": 8931,
      "hae": 8932,
      "halt": 8933,
      "secl": 8934,
      "alming": 8935,
      "herd": 8936,
      "rib": 8937,
      "rian": 8938,
      "allusion": 8939,
      "alluded": 8940,
      "conception": 8941,
      "confounded": 8942,
      "urgent": 8943,
      "disliked": 8944,
      "plants": 8945,
      "spreading": 8946,
      "elon": 8947,
      "frivol": 8948,
      "gni": 8949,
      "monk": 8950,
      "armour": 8951,
      "jewell": 8952,
      "rubbing": 8953,
      "surprize": 8954,
      "challen": 8955,
      "talks": 8956,
      "mail": 8957,
      "relating": 8958,
      "formidable": 8959,
      "charmed": 8960,
      "acquies": 8961,
      "realized": 8962,
      "depth": 8963,
      "pensive": 8964,
      "palm": 8965,
      "complained": 8966,
      "velvet": 8967,
      "fools": 8968,
      "students": 8969,
      "zzi": 8970,
      "Abbot": 8971,
      "wretchedness": 8972,
      "threats": 8973,
      "Project": 8974,
      "treasures": 8975,
      "physical": 8976,
      "snuff": 8977,
      "warriors": 8978,
      "desolate": 8979,
      "April": 8980,
      "49": 8981,
      "Afri": 8982,
      "Blo": 8983,
      "Fron": 8984,
      "Ganim": 8985,
      "Tann": 8986,
      "Yard": 8987,
      "gap": 8988,
      "nations": 8989,
      "smu": 8990,
      "heir": 8991,
      "inu": 8992,
      "removing": 8993,
      "vehi": 8994,
      "forces": 8995,
      "wealthy": 8996,
      "notary": 8997,
      "hadst": 8998,
      "demean": 8999,
      "colored": 9000,
      "unction": 9001,
      "feigned": 9002,
      "pomp": 9003,
      "mances": 9004,
      "ulating": 9005,
      "shrun": 9006,
      "discour": 9007,
      "shaving": 9008,
      "offensive": 9009,
      "armchair": 9010,
      "merch": 9011,
      "dumb": 9012,
      "angels": 9013,
      "continuance": 9014,
      "Doss": 9015,
      "biting": 9016,
      "emphas": 9017,
      "inviting": 9018,
      "wisely": 9019,
      "despat": 9020,
      "excepting": 9021,
      "portions": 9022,
      "guardian": 9023,
      "solely": 9024,
      "Brock": 9025,
      "maternal": 9026,
      "create": 9027,
      "Enide": 9028,
      "pronounce": 9029,
      "Chevalier": 9030,
      "coolness": 9031,
      "asylum": 9032,
      "pearl": 9033,
      "staggered": 9034,
      "Brocton": 9035,
      "Dela": 9036,
      "Peppino": 9037,
      "Cir": 9038,
      "MR": 9039,
      "NUR": 9040,
      "Phar": 9041,
      "Rig": 9042,
      "dances": 9043,
      "rue": 9044,
      "rating": 9045,
      "tax": 9046,
      "uil": 9047,
      "thand": 9048,
      "estern": 9049,
      "seizing": 9050,
      "stretch": 9051,
      "rois": 9052,
      "soil": 9053,
      "holes": 9054,
      "doct": 9055,
      "renzy": 9056,
      "marched": 9057,
      "blast": 9058,
      "torrent": 9059,
      "jolly": 9060,
      "stepping": 9061,
      "latest": 9062,
      "lordship": 9063,
      "Lets": 9064,
      "Hotel": 9065,
      "humility": 9066,
      "distressing": 9067,
      "reports": 9068,
      "representation": 9069,
      "splendour": 9070,
      "Palais": 9071,
      "songs": 9072,
      "ascend": 9073,
      "prompted": 9074,
      "eccent": 9075,
      "confidential": 9076,
      "comrade": 9077,
      "vivacity": 9078,
      "Nantucket": 9079,
      "Cardinal": 9080,
      "goddess": 9081,
      "Brighton": 9082,
      "November": 9083,
      "Bus": 9084,
      "Imp": 9085,
      "JO": 9086,
      "Mam": 9087,
      "Sam": 9088,
      "bond": 9089,
      "bark": 9090,
      "gross": 9091,
      "shat": 9092,
      "sins": 9093,
      "von": 9094,
      "chre": 9095,
      "forlorn": 9096,
      "ada": 9097,
      "riously": 9098,
      "conquest": 9099,
      "concent": 9100,
      "ableness": 9101,
      "ract": 9102,
      "icide": 9103,
      "contact": 9104,
      "resses": 9105,
      "blunder": 9106,
      "tting": 9107,
      "merc": 9108,
      "iani": 9109,
      "anni": 9110,
      "singers": 9111,
      "bands": 9112,
      "calam": 9113,
      "element": 9114,
      "elements": 9115,
      "barrel": 9116,
      "sweetest": 9117,
      "Villeforts": 9118,
      "firmness": 9119,
      "occupy": 9120,
      "influenced": 9121,
      "neighbouring": 9122,
      "escaping": 9123,
      "Harriets": 9124,
      "performances": 9125,
      "obtaining": 9126,
      "unexpectedly": 9127,
      "obstacle": 9128,
      "Suppose": 9129,
      "elderly": 9130,
      "retirement": 9131,
      "Nik": 9132,
      "perpetual": 9133,
      "lovak": 9134,
      "sentinel": 9135,
      "medicine": 9136,
      "Delaford": 9137,
      "NURSE": 9138,
      "Bur": 9139,
      "Baz": 9140,
      "Ciss": 9141,
      "Nast": 9142,
      "Spain": 9143,
      "gang": 9144,
      "jack": 9145,
      "jacket": 9146,
      "inches": 9147,
      "hack": 9148,
      "befallen": 9149,
      "withdrawn": 9150,
      "tile": 9151,
      "etto": 9152,
      "quity": 9153,
      "disci": 9154,
      "inkling": 9155,
      "assed": 9156,
      "vie": 9157,
      "spection": 9158,
      "newly": 9159,
      "precautions": 9160,
      "brood": 9161,
      "energe": 9162,
      "valid": 9163,
      "carelessly": 9164,
      "circles": 9165,
      "plays": 9166,
      "fourteen": 9167,
      "skull": 9168,
      "terribly": 9169,
      "blowing": 9170,
      "ornaments": 9171,
      "wearied": 9172,
      "combat": 9173,
      "ridicule": 9174,
      "drama": 9175,
      "printed": 9176,
      "umbre": 9177,
      "tendency": 9178,
      "route": 9179,
      "bustle": 9180,
      "drowned": 9181,
      "selected": 9182,
      "Steeles": 9183,
      "shutters": 9184,
      "Gir": 9185,
      "Jam": 9186,
      "Kay": 9187,
      "LU": 9188,
      "Lake": 9189,
      "Pen": 9190,
      "SA": 9191,
      "Vall": 9192,
      "Zame": 9193,
      "bounds": 9194,
      "hue": 9195,
      "rees": 9196,
      "tov": 9197,
      "belt": 9198,
      "ceas": 9199,
      "sailing": 9200,
      "abbit": 9201,
      "wholes": 9202,
      "planned": 9203,
      "oundrel": 9204,
      "lette": 9205,
      "gran": 9206,
      "undertaking": 9207,
      "thoughtfully": 9208,
      "monarch": 9209,
      "parcel": 9210,
      "gild": 9211,
      "surrender": 9212,
      "carries": 9213,
      "chains": 9214,
      "breeding": 9215,
      "Forgive": 9216,
      "capri": 9217,
      "corners": 9218,
      "huser": 9219,
      "respectfully": 9220,
      "Dead": 9221,
      "Whom": 9222,
      "Barrois": 9223,
      "00000": 9224,
      "included": 9225,
      "Freder": 9226,
      "varied": 9227,
      "sends": 9228,
      "sorrowful": 9229,
      "aternal": 9230,
      "Frenchman": 9231,
      "lodged": 9232,
      "mirth": 9233,
      "attract": 9234,
      "shouting": 9235,
      "Eltons": 9236,
      "relationship": 9237,
      "audible": 9238,
      "solicit": 9239,
      "mama": 9240,
      "shroud": 9241,
      "recommendation": 9242,
      "committee": 9243,
      "greeted": 9244,
      "Between": 9245,
      "stooped": 9246,
      "weapons": 9247,
      "shawl": 9248,
      "purchased": 9249,
      "Elvira": 9250,
      "submitted": 9251,
      "tragedy": 9252,
      "Bhaer": 9253,
      "Tannhuser": 9254,
      "Zametov": 9255,
      "37": 9256,
      "Asto": 9257,
      "Kom": 9258,
      "MY": 9259,
      "Past": 9260,
      "Res": 9261,
      "Rather": 9262,
      "bors": 9263,
      "dagger": 9264,
      "mart": 9265,
      "plo": 9266,
      "veiled": 9267,
      "shepher": 9268,
      "canal": 9269,
      "cling": 9270,
      "vian": 9271,
      "mostly": 9272,
      "obviously": 9273,
      "scor": 9274,
      "Ingram": 9275,
      "Marme": 9276,
      "Marchioness": 9277,
      "Solo": 9278,
      "engross": 9279,
      "joys": 9280,
      "acquire": 9281,
      "ringing": 9282,
      "discovering": 9283,
[...]
